{
  "version": "1.0",
  "truncation": null,
  "padding": null,
  "added_tokens": [
    {
      "id": 0,
      "content": "[PAD]",
      "single_word": false,
      "lstrip": false,
      "rstrip": false,
      "normalized": false,
      "special": true
    },
    {
      "id": 1,
      "content": "[UNK]",
      "single_word": false,
      "lstrip": false,
      "rstrip": false,
      "normalized": false,
      "special": true
    },
    {
      "id": 2,
      "content": "[BOS]",
      "single_word": false,
      "lstrip": false,
      "rstrip": false,
      "normalized": false,
      "special": true
    },
    {
      "id": 3,
      "content": "[EOS]",
      "single_word": false,
      "lstrip": false,
      "rstrip": false,
      "normalized": false,
      "special": true
    }
  ],
  "normalizer": {
    "type": "Sequence",
    "normalizers": [
      {
        "type": "NFKC"
      }
    ]
  },
  "pre_tokenizer": {
    "type": "ByteLevel",
    "add_prefix_space": true,
    "trim_offsets": true,
    "use_regex": true
  },
  "post_processor": {
    "type": "TemplateProcessing",
    "single": [
      {
        "SpecialToken": {
          "id": "[BOS]",
          "type_id": 0
        }
      },
      {
        "Sequence": {
          "id": "A",
          "type_id": 0
        }
      },
      {
        "SpecialToken": {
          "id": "[EOS]",
          "type_id": 0
        }
      }
    ],
    "pair": [
      {
        "SpecialToken": {
          "id": "[BOS]",
          "type_id": 0
        }
      },
      {
        "Sequence": {
          "id": "A",
          "type_id": 0
        }
      },
      {
        "SpecialToken": {
          "id": "[EOS]",
          "type_id": 0
        }
      },
      {
        "Sequence": {
          "id": "B",
          "type_id": 1
        }
      },
      {
        "SpecialToken": {
          "id": "[EOS]",
          "type_id": 1
        }
      }
    ],
    "special_tokens": {
      "[BOS]": {
        "id": "[BOS]",
        "ids": [
          2
        ],
        "tokens": [
          "[BOS]"
        ]
      },
      "[EOS]": {
        "id": "[EOS]",
        "ids": [
          3
        ],
        "tokens": [
          "[EOS]"
        ]
      }
    }
  },
  "decoder": null,
  "model": {
    "type": "BPE",
    "dropout": null,
    "unk_token": "[UNK]",
    "continuing_subword_prefix": null,
    "end_of_word_suffix": null,
    "fuse_unk": false,
    "byte_fallback": false,
    "ignore_merges": false,
    "vocab": {
      "[PAD]": 0,
      "[UNK]": 1,
      "[BOS]": 2,
      "[EOS]": 3,
      "!": 4,
      "\"": 5,
      "#": 6,
      "$": 7,
      "%": 8,
      "&": 9,
      "'": 10,
      "(": 11,
      ")": 12,
      "*": 13,
      "+": 14,
      ",": 15,
      "-": 16,
      ".": 17,
      "/": 18,
      "0": 19,
      "1": 20,
      "2": 21,
      "3": 22,
      "4": 23,
      "5": 24,
      "6": 25,
      "7": 26,
      "8": 27,
      "9": 28,
      ":": 29,
      ";": 30,
      "=": 31,
      "?": 32,
      "@": 33,
      "A": 34,
      "B": 35,
      "C": 36,
      "D": 37,
      "E": 38,
      "F": 39,
      "G": 40,
      "H": 41,
      "I": 42,
      "J": 43,
      "K": 44,
      "L": 45,
      "M": 46,
      "N": 47,
      "O": 48,
      "P": 49,
      "Q": 50,
      "R": 51,
      "S": 52,
      "T": 53,
      "U": 54,
      "V": 55,
      "W": 56,
      "X": 57,
      "Y": 58,
      "Z": 59,
      "[": 60,
      "]": 61,
      "^": 62,
      "_": 63,
      "`": 64,
      "a": 65,
      "b": 66,
      "c": 67,
      "d": 68,
      "e": 69,
      "f": 70,
      "g": 71,
      "h": 72,
      "i": 73,
      "j": 74,
      "k": 75,
      "l": 76,
      "m": 77,
      "n": 78,
      "o": 79,
      "p": 80,
      "q": 81,
      "r": 82,
      "s": 83,
      "t": 84,
      "u": 85,
      "v": 86,
      "w": 87,
      "x": 88,
      "y": 89,
      "z": 90,
      "¡": 91,
      "¢": 92,
      "£": 93,
      "¤": 94,
      "¥": 95,
      "§": 96,
      "¨": 97,
      "©": 98,
      "ª": 99,
      "«": 100,
      "¬": 101,
      "®": 102,
      "¯": 103,
      "°": 104,
      "±": 105,
      "²": 106,
      "³": 107,
      "´": 108,
      "¶": 109,
      "¸": 110,
      "¹": 111,
      "º": 112,
      "»": 113,
      "¼": 114,
      "½": 115,
      "¿": 116,
      "Â": 117,
      "Ã": 118,
      "Ä": 119,
      "Å": 120,
      "Ì": 121,
      "Î": 122,
      "Ð": 123,
      "Ó": 124,
      "à": 125,
      "â": 126,
      "ä": 127,
      "è": 128,
      "é": 129,
      "ï": 130,
      "Ċ": 131,
      "Ġ": 132,
      "Ģ": 133,
      "ģ": 134,
      "Ĥ": 135,
      "Ħ": 136,
      "ħ": 137,
      "ĩ": 138,
      "Ī": 139,
      "ī": 140,
      "Ĭ": 141,
      "Į": 142,
      "ĳ": 143,
      "Ĵ": 144,
      "ĵ": 145,
      "Ķ": 146,
      "ĸ": 147,
      "Ĺ": 148,
      "ĺ": 149,
      "Ļ": 150,
      "ļ": 151,
      "Ľ": 152,
      "ľ": 153,
      "Ŀ": 154,
      "ŀ": 155,
      "Ł": 156,
      "ł": 157,
      "Ń": 158,
      "en": 159,
      "er": 160,
      "in": 161,
      "Ġt": 162,
      "ch": 163,
      "Ġa": 164,
      "Ġd": 165,
      "Ġw": 166,
      "Ġs": 167,
      "Ġth": 168,
      "nd": 169,
      "ie": 170,
      "es": 171,
      "Ġi": 172,
      "at": 173,
      "on": 174,
      "Ġm": 175,
      "as": 176,
      "an": 177,
      "re": 178,
      "Ġthe": 179,
      "Ġb": 180,
      "Ġh": 181,
      "st": 182,
      "it": 183,
      "Ġo": 184,
      "Ġe": 185,
      "ll": 186,
      "Ġu": 187,
      "Ġg": 188,
      "ou": 189,
      "or": 190,
      "ich": 191,
      "Ġf": 192,
      "ar": 193,
      "Ġin": 194,
      "ing": 195,
      "ĠI": 196,
      "Ġn": 197,
      "ĠS": 198,
      "le": 199,
      "is": 200,
      "Ġc": 201,
      "Ġp": 202,
      "Ġdie": 203,
      "te": 204,
      "ĠA": 205,
      "Ġto": 206,
      "Ġv": 207,
      "ir": 208,
      "Ġein": 209,
      "al": 210,
      "Ġof": 211,
      "Ã¼": 212,
      "Ġand": 213,
      "om": 214,
      "ig": 215,
      "Ġl": 216,
      "ĠW": 217,
      "ed": 218,
      "Ġk": 219,
      "Ġund": 220,
      "Ġbe": 221,
      "un": 222,
      "Ġz": 223,
      "Ã¤": 224,
      "ut": 225,
      "ur": 226,
      "us": 227,
      "Ġdas": 228,
      "el": 229,
      "ion": 230,
      "ĠT": 231,
      "et": 232,
      "ent": 233,
      "Ġy": 234,
      "ĠD": 235,
      "Ġthat": 236,
      "ĠM": 237,
      "ro": 238,
      "em": 239,
      "Ġha": 240,
      "Ġwe": 241,
      "ere": 242,
      "ic": 243,
      "ra": 244,
      "Ġyou": 245,
      "ĠB": 246,
      "ĠE": 247,
      "Ġder": 248,
      "Ġwh": 249,
      "ten": 250,
      "hr": 251,
      "ve": 252,
      "Ġis": 253,
      "Ġwir": 254,
      "Ġzu": 255,
      "il": 256,
      "ow": 257,
      "Ġist": 258,
      "ter": 259,
      "Ã¶": 260,
      "ĠG": 261,
      "Ġit": 262,
      "Ġse": 263,
      "ot": 264,
      "Ġan": 265,
      "icht": 266,
      "am": 267,
      "gen": 268,
      "ber": 269,
      "ach": 270,
      "se": 271,
      "'s": 272,
      "de": 273,
      "ier": 274,
      "lich": 275,
      "ind": 276,
      "ben": 277,
      "ge": 278,
      "Ġso": 279,
      "sch": 280,
      "uf": 281,
      "ĠU": 282,
      "Ġre": 283,
      "all": 284,
      "ke": 285,
      "ĠF": 286,
      "ĠK": 287,
      "Ġun": 288,
      "Ġver": 289,
      "ol": 290,
      "Ġon": 291,
      "Ġich": 292,
      "ĠP": 293,
      "im": 294,
      "Ġes": 295,
      "ĠL": 296,
      "Ġwas": 297,
      "ct": 298,
      "Ġme": 299,
      "he": 300,
      "ay": 301,
      "ĠAnd": 302,
      "ung": 303,
      "ĠH": 304,
      "Ġst": 305,
      "den": 306,
      "Ġal": 307,
      "ver": 308,
      "Ġer": 309,
      "ĠN": 310,
      "Ġthis": 311,
      "Ġden": 312,
      "Ġsie": 313,
      "um": 314,
      "ĠSie": 315,
      "and": 316,
      "Ġ-": 317,
      "Ġj": 318,
      "Ã¼r": 319,
      "ck": 320,
      "uch": 321,
      "id": 322,
      "ld": 323,
      "nen": 324,
      "Ġall": 325,
      "sen": 326,
      "op": 327,
      "Ġnicht": 328,
      "be": 329,
      "ation": 330,
      "ce": 331,
      "Ġ\"": 332,
      "Ġdass": 333,
      "Ġvon": 334,
      "Ġfor": 335,
      "Ġ--": 336,
      "ht": 337,
      "ĠR": 338,
      "Ġeine": 339,
      "ine": 340,
      "ann": 341,
      "Ġab": 342,
      "Ġr": 343,
      "Ġals": 344,
      "Ġauf": 345,
      "Ġim": 346,
      "ĠV": 347,
      "Ġdo": 348,
      "ĠUnd": 349,
      "est": 350,
      "der": 351,
      "hen": 352,
      "ag": 353,
      "her": 354,
      "ill": 355,
      "ell": 356,
      "Ġge": 357,
      "Ġne": 358,
      "Ġmit": 359,
      "ess": 360,
      "Ġli": 361,
      "ÃŁ": 362,
      "ly": 363,
      "ff": 364,
      "Ġare": 365,
      "ith": 366,
      "ally": 367,
      "Ġsch": 368,
      "ĠJ": 369,
      "Ġman": 370,
      "Ġwie": 371,
      "isch": 372,
      "ist": 373,
      "Ġuns": 374,
      "Ġwar": 375,
      "ul": 376,
      "enn": 377,
      "aus": 378,
      "Ġhave": 379,
      "Ġgo": 380,
      "Ġwith": 381,
      "ĠC": 382,
      "ĠSo": 383,
      "Ġle": 384,
      "Ġthey": 385,
      "au": 386,
      "kt": 387,
      "men": 388,
      "Ġsich": 389,
      "ĠTh": 390,
      "Ġhe": 391,
      "ust": 392,
      "out": 393,
      "Ġmo": 394,
      "Ġcan": 395,
      "ers": 396,
      "Ġas": 397,
      "ĠZ": 398,
      "we": 399,
      "ĠO": 400,
      "ĠIch": 401,
      "os": 402,
      "Ġwor": 403,
      "ab": 404,
      "ant": 405,
      "Ġâ": 406,
      "ad": 407,
      "ib": 408,
      "Ġpro": 409,
      "ern": 410,
      "ort": 411,
      "Ġsind": 412,
      "Ġwhat": 413,
      "Ã¼ber": 414,
      "und": 415,
      "Ġ1": 416,
      "Ã¶n": 417,
      "Ġcom": 418,
      "'t": 419,
      "ies": 420,
      "Ġat": 421,
      "ft": 422,
      "oo": 423,
      "Ġdies": 424,
      "Ġsp": 425,
      "ould": 426,
      "Ġhaben": 427,
      "pp": 428,
      "ĠSt": 429,
      "ĠIn": 430,
      "ĠfÃ¼r": 431,
      "Ġabout": 432,
      "Ġfr": 433,
      "Ġex": 434,
      "Ġhat": 435,
      "art": 436,
      "Ġnot": 437,
      "00": 438,
      "Ġaus": 439,
      "ze": 440,
      "ien": 441,
      "ĠWe": 442,
      "ĠThe": 443,
      "ik": 444,
      "iv": 445,
      "Ġum": 446,
      "ein": 447,
      "iel": 448,
      "ese": 449,
      "Ġch": 450,
      "ahr": 451,
      "Ġor": 452,
      "oll": 453,
      "og": 454,
      "Ġsom": 455,
      "ĠÃ¼ber": 456,
      "hl": 457,
      "Ġdes": 458,
      "ne": 459,
      "ĠkÃ¶n": 460,
      "ĠLe": 461,
      "ight": 462,
      "ĠDas": 463,
      "Ġwer": 464,
      "Ġsa": 465,
      "end": 466,
      "ĠEs": 467,
      "Ġdem": 468,
      "Ġmy": 469,
      "Ġde": 470,
      "Ġthere": 471,
      "ĠSch": 472,
      "qu": 473,
      "Ġpe": 474,
      "ĠWir": 475,
      "mer": 476,
      "'re": 477,
      "ink": 478,
      "ive": 479,
      ".\"": 480,
      "ople": 481,
      "Ġda": 482,
      "ate": 483,
      "ĠIt": 484,
      "Ġma": 485,
      "Ġcon": 486,
      "igen": 487,
      "och": 488,
      "ity": 489,
      "Ġone": 490,
      "od": 491,
      "Ġdiese": 492,
      "Ġpeople": 493,
      "th": 494,
      "ĠEr": 495,
      "Ġsh": 496,
      "Ġlike": 497,
      "Ġfrom": 498,
      "elt": 499,
      "ute": 500,
      "esch": 501,
      "ure": 502,
      "ĠBe": 503,
      "ass": 504,
      "Ġtr": 505,
      "ang": 506,
      "ause": 507,
      "ap": 508,
      "Ġar": 509,
      "Ġalso": 510,
      "nt": 511,
      "now": 512,
      "Ġwenn": 513,
      "Ġbec": 514,
      "Ġbut": 515,
      "ste": 516,
      "Ġus": 517,
      "Ġour": 518,
      "Ġeinen": 519,
      "ast": 520,
      "Ġout": 521,
      "Ġget": 522,
      "ook": 523,
      "ĠDie": 524,
      "zen": 525,
      "Ġknow": 526,
      "ensch": 527,
      "Ġjust": 528,
      "Ġih": 529,
      "ĠGe": 530,
      "ieren": 531,
      "ĠPro": 532,
      "ted": 533,
      "Ġ2": 534,
      "Ġthing": 535,
      "ĠAr": 536,
      "ĠkÃ¶nnen": 537,
      "ear": 538,
      "Ġpl": 539,
      "Ġwerden": 540,
      "Ġoder": 541,
      "ĠY": 542,
      "Ġthem": 543,
      "ungen": 544,
      "ick": 545,
      "iert": 546,
      "ild": 547,
      "ĠBut": 548,
      "Ġvor": 549,
      "oug": 550,
      "Ġthese": 551,
      "Ġvery": 552,
      "Ġher": 553,
      "Ġent": 554,
      "Ġif": 555,
      "Ġup": 556,
      "Ġthink": 557,
      "Ġsein": 558,
      "Ġwho": 559,
      "ert": 560,
      "ĠâĢ": 561,
      "ank": 562,
      "orm": 563,
      "ite": 564,
      "ah": 565,
      "ru": 566,
      "ound": 567,
      "Ġmach": 568,
      "fe": 569,
      "our": 570,
      "one": 571,
      "ige": 572,
      "Ġkann": 573,
      "Ġaber": 574,
      "ĠAl": 575,
      "Ġgoing": 576,
      "Ġby": 577,
      "iz": 578,
      "Ġauch": 579,
      "ud": 580,
      "ain": 581,
      "tw": 582,
      "ĠMensch": 583,
      "Ġeiner": 584,
      "ack": 585,
      "per": 586,
      "ĠVer": 587,
      "ĠâĻ": 588,
      "Ã¤t": 589,
      "scha": 590,
      "Ġsee": 591,
      "Ġgen": 592,
      "ĠAber": 593,
      "Ġeinem": 594,
      "Ġsome": 595,
      "Ġact": 596,
      "Ġwhen": 597,
      "ial": 598,
      "sten": 599,
      "ibt": 600,
      "zt": 601,
      "eren": 602,
      "Ġnach": 603,
      "Ġdar": 604,
      "Ġbecause": 605,
      "ĠAn": 606,
      "ĠUn": 607,
      "Ġyour": 608,
      "Ġmein": 609,
      "ame": 610,
      "Ġdi": 611,
      "Ġnur": 612,
      "ide": 613,
      "Ġhad": 614,
      "Ã¤nd": 615,
      "olog": 616,
      "Ġmore": 617,
      "Ġen": 618,
      "pt": 619,
      "pl": 620,
      "age": 621,
      "Ġyear": 622,
      "ans": 623,
      "ard": 624,
      "Ġwird": 625,
      "Ġetw": 626,
      "ob": 627,
      "Ġsehr": 628,
      "ak": 629,
      "ĠRe": 630,
      "Ġte": 631,
      "Ġhier": 632,
      "Ġwill": 633,
      "Ġtim": 634,
      "if": 635,
      "Ġwould": 636,
      "ischen": 637,
      "ble": 638,
      "reat": 639,
      "Ã¶r": 640,
      "ĠMenschen": 641,
      "to": 642,
      "Ġwhich": 643,
      "Ġever": 644,
      "itt": 645,
      "Ã¼ck": 646,
      "urch": 647,
      "ose": 648,
      "ug": 649,
      "Ã¤ch": 650,
      "ise": 651,
      "Ġlook": 652,
      "ple": 653,
      "Ġwere": 654,
      "ond": 655,
      "Ġtheir": 656,
      "Ġam": 657,
      "Ġreally": 658,
      "Ġhow": 659,
      "Ġmich": 660,
      "are": 661,
      "ous": 662,
      "ually": 663,
      "keit": 664,
      "ther": 665,
      "Ġwork": 666,
      "ĠâĻ«": 667,
      "hing": 668,
      "Ġgibt": 669,
      "issen": 670,
      "ens": 671,
      "ĠTe": 672,
      "'ve": 673,
      "Ġinter": 674,
      "hal": 675,
      "ĠâĢĵ": 676,
      "ĠJahr": 677,
      "Ġwur": 678,
      "Ġdann": 679,
      "chen": 680,
      "Ġway": 681,
      "ong": 682,
      "lle": 683,
      "Ġgro": 684,
      "Ġper": 685,
      "Ġgl": 686,
      "Ġvie": 687,
      "heit": 688,
      "Ġhere": 689,
      "du": 690,
      "ĠIh": 691,
      "ect": 692,
      "ue": 693,
      "'m": 694,
      "Ġqu": 695,
      "Ġhas": 696,
      "Ġworld": 697,
      "wo": 698,
      "chn": 699,
      "lie": 700,
      "Ġnoch": 701,
      "ment": 702,
      "ven": 703,
      "ign": 704,
      "Ġste": 705,
      "ions": 706,
      "ĠYou": 707,
      "Ġtime": 708,
      "ater": 709,
      "ĠSp": 710,
      "Ġihr": 711,
      "Ġetwas": 712,
      "Ġthen": 713,
      "schaft": 714,
      "ommen": 715,
      "Ġfa": 716,
      "ia": 717,
      "ĠThis": 718,
      "ken": 719,
      "ough": 720,
      "Ġother": 721,
      "ub": 722,
      "ore": 723,
      "me": 724,
      "Ġfe": 725,
      "Ġmir": 726,
      "eit": 727,
      "Ġevery": 728,
      "Ġdon": 729,
      "Ġpr": 730,
      "Ġsehen": 731,
      "Ã¤n": 732,
      "ip": 733,
      "Ġinto": 734,
      "ĠWelt": 735,
      "Ġhabe": 736,
      "ĠAls": 737,
      "ĠEin": 738,
      "Ġactually": 739,
      "Ġsay": 740,
      "yst": 741,
      "beit": 742,
      "rie": 743,
      "Ġcould": 744,
      "Ġdieser": 745,
      "Ġbet": 746,
      "sel": 747,
      "auf": 748,
      "Ġmehr": 749,
      "alk": 750,
      "Ġmus": 751,
      "tern": 752,
      "Ġke": 753,
      "pr": 754,
      "Ġwant": 755,
      "Ġzur": 756,
      "Ġdurch": 757,
      "Ġbei": 758,
      "Ġgr": 759,
      "ische": 760,
      "Ġthings": 761,
      "Ġwhere": 762,
      "Ġnow": 763,
      "Ġyears": 764,
      "ult": 765,
      "Ġsag": 766,
      "Ġjed": 767,
      "Ġbra": 768,
      "Ġag": 769,
      "ner": 770,
      "ystem": 771,
      "lichen": 772,
      "Ġdid": 773,
      "ĠWh": 774,
      "ĠNow": 775,
      "ren": 776,
      "ace": 777,
      "Ġviel": 778,
      "cht": 779,
      "ring": 780,
      "ĠSe": 781,
      "etzt": 782,
      "ĠWenn": 783,
      "Ġsomet": 784,
      "ĠLeben": 785,
      "Ġalle": 786,
      "ical": 787,
      "Ġbeen": 788,
      "liche": 789,
      "ĠFra": 790,
      "ĠThey": 791,
      "ac": 792,
      "form": 793,
      "Ġsc": 794,
      "Ġro": 795,
      "Ġany": 796,
      "Ã¼s": 797,
      "blem": 798,
      "Ġdiff": 799,
      "Ġmake": 800,
      "zu": 801,
      "Ġhapp": 802,
      "Ġcl": 803,
      "ome": 804,
      "ĠZeit": 805,
      "Ġob": 806,
      "Ġno": 807,
      "ĠCh": 808,
      "Ġlet": 809,
      "Ġbeg": 810,
      "ry": 811,
      "rei": 812,
      "ile": 813,
      "fach": 814,
      "ost": 815,
      "Ġfind": 816,
      "Ġneed": 817,
      "ungs": 818,
      "ph": 819,
      "Ġgan": 820,
      "fl": 821,
      "fen": 822,
      "Ġcomp": 823,
      "klich": 824,
      "Ġtra": 825,
      "Ġzum": 826,
      "Ġwurde": 827,
      "Ġsaid": 828,
      "hn": 829,
      "ĠmÃ¶": 830,
      "inge": 831,
      "ake": 832,
      "Ġpart": 833,
      "irst": 834,
      "Ġunser": 835,
      "wer": 836,
      "ice": 837,
      "ĠwÃ¼r": 838,
      "Ġover": 839,
      "Ġright": 840,
      "mt": 841,
      "ree": 842,
      "ory": 843,
      "ĠIhnen": 844,
      "ÃŁen": 845,
      "Ġbl": 846,
      "Ã¤hr": 847,
      "chte": 848,
      "ĠHe": 849,
      "Ġunter": 850,
      "Ġsomething": 851,
      "Ġsel": 852,
      "ient": 853,
      "Ġzwe": 854,
      "iver": 855,
      "che": 856,
      "Ġmachen": 857,
      "assen": 858,
      "gt": 859,
      "ellen": 860,
      "Ġback": 861,
      "Ġwo": 862,
      "ange": 863,
      "illion": 864,
      "ount": 865,
      "Ġtwo": 866,
      "iter": 867,
      "als": 868,
      "ys": 869,
      "ĠÃ": 870,
      "able": 871,
      "Ġihre": 872,
      "Ġgot": 873,
      "chnolog": 874,
      "Ġmuch": 875,
      "erst": 876,
      "Ġwirklich": 877,
      "Ġthan": 878,
      "ĠGesch": 879,
      "000": 880,
      "fr": 881,
      "Ġkind": 882,
      "fÃ¼": 883,
      "ger": 884,
      "Ġ3": 885,
      "Ġtun": 886,
      "Ġeinfach": 887,
      "Ġimmer": 888,
      "red": 889,
      "Ġmeine": 890,
      "Ġcall": 891,
      "ark": 892,
      "Ġthose": 893,
      "acht": 894,
      "Ġbu": 895,
      "sp": 896,
      "ĠKind": 897,
      "Ġfirst": 898,
      "aten": 899,
      "ittle": 900,
      "Ġweil": 901,
      "ations": 902,
      "bst": 903,
      "Ġbes": 904,
      "ĠNe": 905,
      "Ġlittle": 906,
      "ffen": 907,
      "erson": 908,
      "Ġkon": 909,
      "ĠGr": 910,
      "ĠAlso": 911,
      "cent": 912,
      "own": 913,
      "Ġnew": 914,
      "Ġlot": 915,
      "Ġimp": 916,
      "Ġwoll": 917,
      "ĠfÃ¼": 918,
      "ĠOr": 919,
      "ord": 920,
      "?\"": 921,
      "Ġlo": 922,
      "ats": 923,
      "way": 924,
      "Ġres": 925,
      "Ġsoll": 926,
      "ves": 927,
      "ale": 928,
      "iger": 929,
      "Ġra": 930,
      "rit": 931,
      "ĠmÃ¼s": 932,
      "vel": 933,
      "eln": 934,
      "Ġhatte": 935,
      "Ġges": 936,
      "ĠThat": 937,
      "Ġze": 938,
      "hmen": 939,
      "Ġbis": 940,
      "Ġac": 941,
      "Ġkom": 942,
      "Ġspe": 943,
      "Ġunsere": 944,
      "Ġpo": 945,
      "ase": 946,
      "Ġtalk": 947,
      "Ġdieses": 948,
      "gan": 949,
      "Ġdis": 950,
      "Ġph": 951,
      "ĠMan": 952,
      "Ġshe": 953,
      "Ġkle": 954,
      "Ġmost": 955,
      "ody": 956,
      "ri": 957,
      "leich": 958,
      "nte": 959,
      "ĠWas": 960,
      "uchen": 961,
      "ood": 962,
      "ving": 963,
      "Ġonly": 964,
      "Ġdam": 965,
      "Ġkeine": 966,
      "hlen": 967,
      "ied": 968,
      "ath": 969,
      "glich": 970,
      "ĠLeute": 971,
      "aut": 972,
      "..": 973,
      "ance": 974,
      "Ġreal": 975,
      "Ã¤r": 976,
      "ated": 977,
      "uen": 978,
      "Ġlife": 979,
      "Ġwissen": 980,
      "ition": 981,
      "Ġad": 982,
      "ktion": 983,
      "ely": 984,
      "ents": 985,
      "Ġhum": 986,
      "Ġhis": 987,
      "mal": 988,
      "ĠmÃ¼ssen": 989,
      "Ġday": 990,
      "Ġeven": 991,
      "ĠArt": 992,
      "Ġstar": 993,
      "Ġgut": 994,
      "Ġ19": 995,
      "erent": 996,
      "ish": 997,
      "Ġdiesem": 998,
      "ĠGes": 999,
      "Ġcont": 1000,
      "ram": 1001,
      "iÃŁ": 1002,
      "inn": 1003,
      "bar": 1004,
      "Ġviele": 1005,
      "xt": 1006,
      "Ġvers": 1007,
      "other": 1008,
      "ges": 1009,
      "ok": 1010,
      "Ġthr": 1011,
      "Ġwaren": 1012,
      "Ġdifferent": 1013,
      "Ġtake": 1014,
      "Ġsagen": 1015,
      "ons": 1016,
      "ĠDinge": 1017,
      "Ġsagte": 1018,
      "igkeit": 1019,
      "Ġmany": 1020,
      "ĠVor": 1021,
      "Ġpass": 1022,
      "ichte": 1023,
      "Ġfl": 1024,
      "Ġoff": 1025,
      "Ġdiesen": 1026,
      "Ġlie": 1027,
      "Ġgood": 1028,
      "Ġide": 1029,
      "Ġbin": 1030,
      "ĠJahren": 1031,
      "gl": 1032,
      "unden": 1033,
      "Ġ20": 1034,
      "ĠgroÃŁ": 1035,
      "Ġbef": 1036,
      "Ġdoes": 1037,
      "int": 1038,
      "Ġsu": 1039,
      "ict": 1040,
      "Ġdown": 1041,
      "wn": 1042,
      "Ġind": 1043,
      "ĠThere": 1044,
      "Ġaround": 1045,
      "Ġhel": 1046,
      "Ġeines": 1047,
      "get": 1048,
      "gend": 1049,
      "Ġnat": 1050,
      "Ġandere": 1051,
      "ammen": 1052,
      "Ġthrough": 1053,
      "ont": 1054,
      "Ġzwei": 1055,
      "ors": 1056,
      "Ġput": 1057,
      "urn": 1058,
      "Ġ5": 1059,
      "act": 1060,
      "Ġjetzt": 1061,
      "Ġhin": 1062,
      "tel": 1063,
      "ĠWhat": 1064,
      "llen": 1065,
      "'ll": 1066,
      "Ġkein": 1067,
      "ĠAus": 1068,
      "Ġanderen": 1069,
      "Ġgew": 1070,
      "ichtig": 1071,
      "Ġbek": 1072,
      "iss": 1073,
      "Ġpre": 1074,
      "Ġwieder": 1075,
      "itÃ¤t": 1076,
      "ution": 1077,
      "Ġshow": 1078,
      "Ġ10": 1079,
      "off": 1080,
      "Ġverb": 1081,
      "ool": 1082,
      "usammen": 1083,
      "cess": 1084,
      "lleicht": 1085,
      "oc": 1086,
      "ahre": 1087,
      "ible": 1088,
      "ĠMe": 1089,
      "Ġem": 1090,
      "Ġglau": 1091,
      "Ġuse": 1092,
      "ĠAuf": 1093,
      "Ġsol": 1094,
      "Ġbeing": 1095,
      "ience": 1096,
      "Ġtell": 1097,
      "wick": 1098,
      "ha": 1099,
      "ought": 1100,
      "Ġalles": 1101,
      "ty": 1102,
      "ĠWie": 1103,
      "ĠwÃ¼rde": 1104,
      "ary": 1105,
      "auen": 1106,
      "ss": 1107,
      "ĠUnter": 1108,
      "vol": 1109,
      "isten": 1110,
      "ĠDies": 1111,
      "gr": 1112,
      "igh": 1113,
      "Ġproblem": 1114,
      "Ġcomm": 1115,
      "oss": 1116,
      "vor": 1117,
      "Ġselbst": 1118,
      "Ġsame": 1119,
      "Ġhappen": 1120,
      "ious": 1121,
      "old": 1122,
      "Ġdamit": 1123,
      "ual": 1124,
      "igt": 1125,
      "Ġdu": 1126,
      "Ġtry": 1127,
      "Ġinc": 1128,
      "ekt": 1129,
      "Ġbest": 1130,
      "Ġbring": 1131,
      "ars": 1132,
      "ces": 1133,
      "Ġ4": 1134,
      "Ġfact": 1135,
      "ĠDer": 1136,
      "ede": 1137,
      "Ġwen": 1138,
      "ĠInd": 1139,
      "Ġstud": 1140,
      "Ġins": 1141,
      "arn": 1142,
      "Ġsm": 1143,
      "ĠEnt": 1144,
      "Ġcome": 1145,
      "geb": 1146,
      "ep": 1147,
      "yp": 1148,
      "Ġgem": 1149,
      "att": 1150,
      "ower": 1151,
      "ism": 1152,
      "ian": 1153,
      "Ġfun": 1154,
      "day": 1155,
      "Ã¼n": 1156,
      "Ġgeht": 1157,
      "ful": 1158,
      "ject": 1159,
      "halten": 1160,
      "amil": 1161,
      "Ġdoing": 1162,
      "Ġdr": 1163,
      "ĠJahre": 1164,
      "hren": 1165,
      "Ġcount": 1166,
      "fter": 1167,
      "ĠPl": 1168,
      "Ġhuman": 1169,
      "omen": 1170,
      "Ġmay": 1171,
      "nis": 1172,
      "ction": 1173,
      "Ġgreat": 1174,
      "formation": 1175,
      "ĠMit": 1176,
      "ire": 1177,
      "ically": 1178,
      "Ã¤l": 1179,
      "Ġthree": 1180,
      "Ġbig": 1181,
      "ĠzurÃ¼ck": 1182,
      "Ġgesch": 1183,
      "ĠwÃ¤": 1184,
      "Ġlang": 1185,
      "Ġnie": 1186,
      "Ġmuss": 1187,
      "Ġsur": 1188,
      "Ġsystem": 1189,
      "Ġdenn": 1190,
      "ved": 1191,
      "Ġhal": 1192,
      "ade": 1193,
      "Ġbit": 1194,
      "ĠIf": 1195,
      "Ġweiter": 1196,
      "Ġversch": 1197,
      "uss": 1198,
      "Ġstart": 1199,
      "Ġend": 1200,
      "tet": 1201,
      "ĠUm": 1202,
      "Ġsim": 1203,
      "piel": 1204,
      "ting": 1205,
      "Ġpercent": 1206,
      "ics": 1207,
      "Ġwell": 1208,
      "Ġdec": 1209,
      "ucht": 1210,
      "ds": 1211,
      "Ã¶ÃŁ": 1212,
      "Ġgu": 1213,
      "Ġger": 1214,
      "Ġprodu": 1215,
      "Ġask": 1216,
      "la": 1217,
      "Ġschon": 1218,
      "Ġzw": 1219,
      "ize": 1220,
      "Ã¤chlich": 1221,
      "thing": 1222,
      "Ġcalled": 1223,
      "Ġpol": 1224,
      "Ġklein": 1225,
      "Ġheraus": 1226,
      "Ġpa": 1227,
      "Ġbuild": 1228,
      "iden": 1229,
      "Ġbas": 1230,
      "Ġir": 1231,
      "Ġapp": 1232,
      "'d": 1233,
      "ĠWell": 1234,
      "zent": 1235,
      "von": 1236,
      "tra": 1237,
      "Ġhand": 1238,
      "ock": 1239,
      "nten": 1240,
      "stell": 1241,
      "ĠFl": 1242,
      "Ġben": 1243,
      "self": 1244,
      "ating": 1245,
      "Ġganz": 1246,
      "teil": 1247,
      "ĠBl": 1248,
      "Ġagain": 1249,
      "Ġgra": 1250,
      "ahl": 1251,
      "ĠmÃ¶chte": 1252,
      "rÃ¤": 1253,
      "Ã¼t": 1254,
      "Ġchild": 1255,
      "Ġihnen": 1256,
      "io": 1257,
      "ĠAmer": 1258,
      "Ġquest": 1259,
      "cial": 1260,
      "Ġmade": 1261,
      "Ġvielleicht": 1262,
      "ĠHer": 1263,
      "ork": 1264,
      "gel": 1265,
      "pro": 1266,
      "its": 1267,
      "ĠTeil": 1268,
      "ull": 1269,
      "Ġtechnolog": 1270,
      "ĠArbeit": 1271,
      "ates": 1272,
      "esen": 1273,
      "Ġele": 1274,
      "bt": 1275,
      "ler": 1276,
      "Ġlong": 1277,
      "ivers": 1278,
      "Ġimport": 1279,
      "Ġzusammen": 1280,
      "ĠIde": 1281,
      "ek": 1282,
      "Ġrem": 1283,
      "ities": 1284,
      "alt": 1285,
      "az": 1286,
      "Ġtrans": 1287,
      "ĠAfr": 1288,
      "etz": 1289,
      "ĠKinder": 1290,
      "atsÃ¤chlich": 1291,
      "tell": 1292,
      "Ġshould": 1293,
      "Ġrel": 1294,
      "Ġeinz": 1295,
      "fahr": 1296,
      "ĠDa": 1297,
      "ĠLand": 1298,
      "Ġfra": 1299,
      "Ġlearn": 1300,
      "Ġwhy": 1301,
      "Ġown": 1302,
      "eld": 1303,
      "inden": 1304,
      "Ġdavon": 1305,
      "bs": 1306,
      "Ġsec": 1307,
      "ĠFor": 1308,
      "les": 1309,
      "Ġdort": 1310,
      "Ġmak": 1311,
      "entlich": 1312,
      "sche": 1313,
      "angen": 1314,
      "hne": 1315,
      "sam": 1316,
      "oment": 1317,
      "ĠNun": 1318,
      "Ġunderst": 1319,
      "ins": 1320,
      "ĠGen": 1321,
      "Ġturn": 1322,
      "ierte": 1323,
      "Ġexper": 1324,
      "Ġwel": 1325,
      "rank": 1326,
      "Ġgleich": 1327,
      "uten": 1328,
      "Ġperson": 1329,
      "ĠGrund": 1330,
      "uter": 1331,
      "Ġdesign": 1332,
      "ational": 1333,
      "ĠBeis": 1334,
      "uÃŁ": 1335,
      "pf": 1336,
      "ĠIm": 1337,
      "ĠTag": 1338,
      "Ġheute": 1339,
      "zie": 1340,
      "for": 1341,
      "ĠHier": 1342,
      "Ġhatten": 1343,
      "Ġchange": 1344,
      "Ġcour": 1345,
      "ĠAll": 1346,
      "Ġletz": 1347,
      "Ġmean": 1348,
      "anet": 1349,
      "Ġfin": 1350,
      "Ġtoday": 1351,
      "Ġgenau": 1352,
      "ubl": 1353,
      "Ġafter": 1354,
      "Ġrec": 1355,
      "Ġthought": 1356,
      "Ġimportant": 1357,
      "Ġdidn": 1358,
      "Ġfeel": 1359,
      "ĠWissen": 1360,
      "halb": 1361,
      "ĠGeschichte": 1362,
      "ope": 1363,
      "Ġidea": 1364,
      "onom": 1365,
      "weise": 1366,
      "ail": 1367,
      "Ġcar": 1368,
      "ielen": 1369,
      "Ġbelie": 1370,
      "ĠBild": 1371,
      "br": 1372,
      "ĠNach": 1373,
      "aum": 1374,
      "ĠThank": 1375,
      "ichten": 1376,
      "Ġplay": 1377,
      "erm": 1378,
      "anden": 1379,
      "Ġcreat": 1380,
      "ular": 1381,
      "zÃ¤": 1382,
      "chten": 1383,
      "Ġlast": 1384,
      "ĠFre": 1385,
      "Ġjem": 1386,
      "kl": 1387,
      "Ġihn": 1388,
      "Ġstarted": 1389,
      "body": 1390,
      "rechen": 1391,
      "Ġexp": 1392,
      "hÃ¶r": 1393,
      "hir": 1394,
      "ix": 1395,
      "ica": 1396,
      "Ġits": 1397,
      "âĢ": 1398,
      "omp": 1399,
      "Ġhim": 1400,
      "ĠkÃ¶nnte": 1401,
      "gar": 1402,
      "Ġdrei": 1403,
      "Ġexam": 1404,
      "Ã¤ndern": 1405,
      "ĠZu": 1406,
      "ĠDiese": 1407,
      "Ã¤d": 1408,
      "mlich": 1409,
      "orn": 1410,
      "Ġ200": 1411,
      "atz": 1412,
      "ĠSte": 1413,
      "Ġeinige": 1414,
      "Ġwollen": 1415,
      "ode": 1416,
      "olle": 1417,
      "oren": 1418,
      "imm": 1419,
      "stehen": 1420,
      "vent": 1421,
      "erg": 1422,
      "Ġwent": 1423,
      "over": 1424,
      "Ġpaar": 1425,
      "Ġmeiner": 1426,
      "Ġbefore": 1427,
      "Ġunderstand": 1428,
      "Ġstill": 1429,
      "ings": 1430,
      "Ġcourse": 1431,
      "pen": 1432,
      "Ġmight": 1433,
      "Ġgehen": 1434,
      "Ġsond": 1435,
      "Ġwurden": 1436,
      "reich": 1437,
      "atur": 1438,
      "Ġgive": 1439,
      "Ġnun": 1440,
      "Ġhelp": 1441,
      "erv": 1442,
      "Ġbetter": 1443,
      "asser": 1444,
      "ĠdarÃ¼ber": 1445,
      "Ġable": 1446,
      "ility": 1447,
      "gram": 1448,
      "anz": 1449,
      "Ġschw": 1450,
      "Ġanother": 1451,
      "Ġeff": 1452,
      "Ġwerde": 1453,
      "bei": 1454,
      "Ġnever": 1455,
      "Ġmed": 1456,
      "ina": 1457,
      "Ġerst": 1458,
      "ache": 1459,
      "utzen": 1460,
      "ĠGl": 1461,
      "Ġkl": 1462,
      "ĠProblem": 1463,
      "ieden": 1464,
      "ists": 1465,
      "Ġbess": 1466,
      "ĠtatsÃ¤chlich": 1467,
      "Ġsondern": 1468,
      "Ġstory": 1469,
      "ĠBeispiel": 1470,
      "nde": 1471,
      "ather": 1472,
      "Ġtak": 1473,
      "utz": 1474,
      "ĠAb": 1475,
      "umber": 1476,
      "schein": 1477,
      "ennen": 1478,
      "Ġstr": 1479,
      "Ġcons": 1480,
      "Ã¤h": 1481,
      "Ġpoint": 1482,
      "fÃ¼r": 1483,
      "ital": 1484,
      "Ã¤nder": 1485,
      "Ġverw": 1486,
      "Ġbrain": 1487,
      "amm": 1488,
      "Ġfound": 1489,
      "iten": 1490,
      "Ġpower": 1491,
      "ĠweiÃŁ": 1492,
      "Ã¼rlich": 1493,
      "Ã¤hrend": 1494,
      "Ġzie": 1495,
      "ogra": 1496,
      "ov": 1497,
      "ĠGeb": 1498,
      "ĠÃľ": 1499,
      "Ġbesch": 1500,
      "Ġsort": 1501,
      "nehmen": 1502,
      "Ġbo": 1503,
      "Ġwahr": 1504,
      "Ġgab": 1505,
      "Ġunserer": 1506,
      "ĠIhre": 1507,
      "Ġ6": 1508,
      "ander": 1509,
      "uff": 1510,
      "Ġago": 1511,
      "Ġkid": 1512,
      "Ġeigen": 1513,
      "ĠKl": 1514,
      "ĠReg": 1515,
      "Ġseine": 1516,
      "ĠIntern": 1517,
      "ugen": 1518,
      "ott": 1519,
      "Ġbr": 1520,
      "arch": 1521,
      "ĠGehir": 1522,
      "kay": 1523,
      "Ġmon": 1524,
      ",\"": 1525,
      "ym": 1526,
      "Ġtoget": 1527,
      "allen": 1528,
      "Ġtogether": 1529,
      "Ġbede": 1530,
      "Ġnext": 1531,
      "iven": 1532,
      "aw": 1533,
      "amen": 1534,
      "alth": 1535,
      "ĠMus": 1536,
      "rat": 1537,
      "Ġec": 1538,
      "Ġgeb": 1539,
      "ward": 1540,
      "ĠAut": 1541,
      "fol": 1542,
      "Ġmal": 1543,
      "ĠwÃ¤re": 1544,
      "ues": 1545,
      "Ġleben": 1546,
      "Ġwater": 1547,
      "ĠDes": 1548,
      "Ġcame": 1549,
      "Ġgel": 1550,
      "ĠNew": 1551,
      "Ġplace": 1552,
      "Ġschool": 1553,
      "ĠPh": 1554,
      "ave": 1555,
      "ata": 1556,
      "atient": 1557,
      "ited": 1558,
      "enden": 1559,
      "land": 1560,
      "ĠgrÃ¶ÃŁ": 1561,
      "Ġvom": 1562,
      "Ġcommun": 1563,
      "Ġarbeit": 1564,
      "Ġdazu": 1565,
      "ween": 1566,
      "velop": 1567,
      "Ġfew": 1568,
      "ingen": 1569,
      "Ġsl": 1570,
      "volution": 1571,
      "ĠKon": 1572,
      "Ġdenke": 1573,
      "Ġimag": 1574,
      "ED": 1575,
      "Ġcomple": 1576,
      "cted": 1577,
      "ĠhÃ¤t": 1578,
      "Ġnumber": 1579,
      "read": 1580,
      "Ġneue": 1581,
      "Ã¶glich": 1582,
      "schen": 1583,
      "cken": 1584,
      "achen": 1585,
      "ĠLebens": 1586,
      "ĠEn": 1587,
      "Ġfinden": 1588,
      "ĠMillion": 1589,
      "gef": 1590,
      "...": 1591,
      "bl": 1592,
      "Ġverl": 1593,
      "Ġdenken": 1594,
      "Ġkommen": 1595,
      "Ġentwick": 1596,
      "Ġused": 1597,
      "Ġsogar": 1598,
      "Ġwichtig": 1599,
      "Ġgef": 1600,
      "Ġdenen": 1601,
      "anted": 1602,
      "Ġmacht": 1603,
      "Ġhigh": 1604,
      "Ġeach": 1605,
      "ĠHand": 1606,
      "Ġbetween": 1607,
      "aufen": 1608,
      "ĠMal": 1609,
      "Ġeinmal": 1610,
      "ized": 1611,
      "Ġtechnology": 1612,
      "Ã¶ff": 1613,
      "Ġgegen": 1614,
      "Ġart": 1615,
      "gs": 1616,
      "Ġglob": 1617,
      "eter": 1618,
      "ĠMed": 1619,
      "ines": 1620,
      "ĠWhen": 1621,
      "iness": 1622,
      "ced": 1623,
      "Ġquestion": 1624,
      "Ġzwischen": 1625,
      "Ġgerade": 1626,
      "Ġinst": 1627,
      "ĠWer": 1628,
      "Ġdevelop": 1629,
      "atch": 1630,
      "Ġgemacht": 1631,
      "ĠInternet": 1632,
      "ĠDe": 1633,
      "ĠTechnolog": 1634,
      "Ġ15": 1635,
      "cause": 1636,
      "Ġglaube": 1637,
      "arbeit": 1638,
      "els": 1639,
      "oth": 1640,
      "ĠerzÃ¤": 1641,
      "ĠBr": 1642,
      "Ġ100": 1643,
      "Ġset": 1644,
      "Ġsmall": 1645,
      "arm": 1646,
      "Ġinteress": 1647,
      "Ġgeben": 1648,
      "ĠFrauen": 1649,
      "Ġkommt": 1650,
      "Ġmin": 1651,
      "ative": 1652,
      "hrt": 1653,
      "ember": 1654,
      "Ġans": 1655,
      "ific": 1656,
      "cy": 1657,
      "Ġohne": 1658,
      "ierung": 1659,
      "esting": 1660,
      "ways": 1661,
      "Ġfunktion": 1662,
      "mit": 1663,
      "Ġfour": 1664,
      "Ġweit": 1665,
      "Ġlooking": 1666,
      "Ġexample": 1667,
      "Ġ30": 1668,
      "ĠGehirn": 1669,
      "Ġtoo": 1670,
      "geben": 1671,
      "kommen": 1672,
      "ika": 1673,
      "Ġbere": 1674,
      "Ġ50": 1675,
      "ĠIhr": 1676,
      "Ġcre": 1677,
      "ĠWasser": 1678,
      "ĠFrage": 1679,
      "ps": 1680,
      "ium": 1681,
      "Ġrun": 1682,
      "ĠHow": 1683,
      "ule": 1684,
      "Ġdone": 1685,
      "Ġorgan": 1686,
      "Ġdisc": 1687,
      "Ġschn": 1688,
      "agen": 1689,
      "uge": 1690,
      "Ġpar": 1691,
      "affen": 1692,
      "Ġ8": 1693,
      "itu": 1694,
      "ĠBecause": 1695,
      "Ġmet": 1696,
      "Ġold": 1697,
      "Ġexpl": 1698,
      "Ġpartic": 1699,
      "ĠÃľber": 1700,
      "Ġ9": 1701,
      "ĠTED": 1702,
      "Ġel": 1703,
      "ĠnÃ¤ch": 1704,
      "Ġdata": 1705,
      "uer": 1706,
      "Ġletzten": 1707,
      "ably": 1708,
      "ĠEx": 1709,
      "atter": 1710,
      "Ġdoesn": 1711,
      "Ġbi": 1712,
      "Ġnichts": 1713,
      "aterial": 1714,
      "unkt": 1715,
      "Ġform": 1716,
      "Ġwomen": 1717,
      "Ġzeigen": 1718,
      "hand": 1719,
      "Ġihren": 1720,
      "Ġ7": 1721,
      "Ġlove": 1722,
      "ĠStud": 1723,
      "ĠwÃ¼rden": 1724,
      "Ġirgend": 1725,
      "Ġcell": 1726,
      "dem": 1727,
      "Ġgrow": 1728,
      "ĠIs": 1729,
      "ĠAt": 1730,
      "ts": 1731,
      "ĠdafÃ¼r": 1732,
      "elle": 1733,
      "Ġvis": 1734,
      "tz": 1735,
      "ationen": 1736,
      "Ġwr": 1737,
      "Ġlight": 1738,
      "tschaft": 1739,
      "Ġcent": 1740,
      "alen": 1741,
      "Ġkonnte": 1742,
      "Ġpassiert": 1743,
      "Ġlive": 1744,
      "Ġverschieden": 1745,
      "stellen": 1746,
      "Ġersten": 1747,
      "Ġsieht": 1748,
      "ĠAnt": 1749,
      "Ġinv": 1750,
      "Ġ[": 1751,
      "Ġjeder": 1752,
      "Ġwanted": 1753,
      "zeit": 1754,
      "gew": 1755,
      "Ġsecond": 1756,
      "immt": 1757,
      "Ã¤lt": 1758,
      "Ġcare": 1759,
      "ement": 1760,
      "gie": 1761,
      "pe": 1762,
      "gest": 1763,
      "anke": 1764,
      "Ġfamil": 1765,
      "ures": 1766,
      "ikan": 1767,
      "Ġwhole": 1768,
      "Ġreg": 1769,
      "Ġposs": 1770,
      "Ġlar": 1771,
      "Ġgener": 1772,
      "ĠUnivers": 1773,
      "aub": 1774,
      "ften": 1775,
      "ĠPr": 1776,
      "Ġmillion": 1777,
      "Ġverstehen": 1778,
      "Ġsk": 1779,
      "ross": 1780,
      "oy": 1781,
      "ĠQ": 1782,
      "led": 1783,
      "Ã¶s": 1784,
      "ĠFr": 1785,
      "ĠProzent": 1786,
      "achte": 1787,
      "Ġeng": 1788,
      "ĠwÃ¤hrend": 1789,
      "ĠEine": 1790,
      "Ġtrying": 1791,
      "ness": 1792,
      "Ġreas": 1793,
      "Ġdaran": 1794,
      "fer": 1795,
      "here": 1796,
      "net": 1797,
      "cept": 1798,
      "rupp": 1799,
      "ĠMillionen": 1800,
      "Ġdra": 1801,
      "Ġmag": 1802,
      "ogen": 1803,
      "Ġpolit": 1804,
      "Ġbesser": 1805,
      "under": 1806,
      "ĠWar": 1807,
      "Ġstand": 1808,
      "unde": 1809,
      "wort": 1810,
      "yn": 1811,
      "iele": 1812,
      "Ġetwa": 1813,
      "Ġchang": 1814,
      "Ġworking": 1815,
      "oney": 1816,
      "Ġmind": 1817,
      "ilm": 1818,
      "selves": 1819,
      "Ġtre": 1820,
      "Ġphys": 1821,
      "Ġsub": 1822,
      "ense": 1823,
      "Ġaway": 1824,
      "Ġander": 1825,
      "ider": 1826,
      "ĠAs": 1827,
      "Ġalways": 1828,
      "esehen": 1829,
      "fin": 1830,
      "Ġnorm": 1831,
      "Ġwarum": 1832,
      "Ġresp": 1833,
      "los": 1834,
      "Ġbegin": 1835,
      "Ġlassen": 1836,
      "ĠDaten": 1837,
      "Ġread": 1838,
      "ives": 1839,
      "Ġerste": 1840,
      "vers": 1841,
      "ĠComp": 1842,
      "Ġeconom": 1843,
      "Ġchildren": 1844,
      "enten": 1845,
      "Ġprob": 1846,
      "wir": 1847,
      "Ġless": 1848,
      "ma": 1849,
      "Ġbelieve": 1850,
      "Ġbus": 1851,
      "weg": 1852,
      "Ġdire": 1853,
      "ster": 1854,
      "Ġfast": 1855,
      "Ġanim": 1856,
      "essen": 1857,
      "cher": 1858,
      "Ġmensch": 1859,
      "Ġsollten": 1860,
      "Ġsollte": 1861,
      "gehen": 1862,
      "agt": 1863,
      "ĠnatÃ¼rlich": 1864,
      "alls": 1865,
      "ĠFe": 1866,
      "ideo": 1867,
      "jekt": 1868,
      "ĠIdee": 1869,
      "Ġcap": 1870,
      "ĠPerson": 1871,
      "ĠGeld": 1872,
      "Ġbook": 1873,
      "Ġhealth": 1874,
      "amp": 1875,
      "Ġmeinen": 1876,
      "Ġcountry": 1877,
      "zeug": 1878,
      "ĠMon": 1879,
      "unk": 1880,
      "Ġacc": 1881,
      "ural": 1882,
      "ollar": 1883,
      "Ġmeinem": 1884,
      "ischer": 1885,
      "ĠkÃ¶nnten": 1886,
      "ands": 1887,
      "Ġsupp": 1888,
      "uÃŁer": 1889,
      "ries": 1890,
      "ĠMy": 1891,
      "Ġschnell": 1892,
      "ivid": 1893,
      "Ã¤ng": 1894,
      "illi": 1895,
      "Ġpict": 1896,
      "Ġcor": 1897,
      "hip": 1898,
      "sy": 1899,
      "schied": 1900,
      "Ġja": 1901,
      "ĠRaum": 1902,
      "ĠSchw": 1903,
      "Ġdre": 1904,
      "row": 1905,
      "Ġmeisten": 1906,
      "akt": 1907,
      "Ġhard": 1908,
      "tre": 1909,
      "amer": 1910,
      "Ġfrien": 1911,
      "ĠTr": 1912,
      "Ġwollte": 1913,
      "licher": 1914,
      "Ġganze": 1915,
      "ĠgroÃŁe": 1916,
      "Ġabs": 1917,
      "ĠÃĦ": 1918,
      "Ġjemand": 1919,
      "isen": 1920,
      "Ġusing": 1921,
      "err": 1922,
      "raft": 1923,
      "ĠWeg": 1924,
      "Ġspace": 1925,
      "Ġziemlich": 1926,
      "Ġsprechen": 1927,
      "hin": 1928,
      "ĠSystem": 1929,
      "ilt": 1930,
      "Ġmeans": 1931,
      "dern": 1932,
      "Ġihrer": 1933,
      "ruck": 1934,
      "Ġcou": 1935,
      "Ã¼nd": 1936,
      "adt": 1937,
      "Ġaut": 1938,
      "Ġfive": 1939,
      "Ġmod": 1940,
      "Ġbekommen": 1941,
      "Ã¶glichkeit": 1942,
      "Ġthinking": 1943,
      "ernen": 1944,
      "Ġsagt": 1945,
      "Ġging": 1946,
      "str": 1947,
      "utet": 1948,
      "Ġtook": 1949,
      "lung": 1950,
      "asch": 1951,
      "Ġkids": 1952,
      "Ġfre": 1953,
      "ĠUS": 1954,
      "ane": 1955,
      "Ġdabei": 1956,
      "ĠâĻª": 1957,
      "Ġinformation": 1958,
      "Ġcreate": 1959,
      "utter": 1960,
      "Ġproject": 1961,
      "press": 1962,
      "Ġeig": 1963,
      "ett": 1964,
      "Ġsuch": 1965,
      "Ġmaybe": 1966,
      "ĠMar": 1967,
      "uft": 1968,
      "Ġmark": 1969,
      "ĠVerb": 1970,
      "fÃ¼hl": 1971,
      "Ġkam": 1972,
      "ierten": 1973,
      "stÃ¤nd": 1974,
      "Ġpubl": 1975,
      "ĠDank": 1976,
      "legen": 1977,
      "Ġmoney": 1978,
      "ĠAm": 1979,
      "Ġsicher": 1980,
      "Ġeverything": 1981,
      "ĠhÃ¶r": 1982,
      "rop": 1983,
      "Ġspec": 1984,
      "Ġsing": 1985,
      "Ġdoll": 1986,
      "Ġarbeiten": 1987,
      "Ġopen": 1988,
      "ĠMin": 1989,
      "arth": 1990,
      "Ġdarauf": 1991,
      "onder": 1992,
      "Ġhome": 1993,
      "ĠOne": 1994,
      "kun": 1995,
      "Ġ'": 1996,
      "Ġbecome": 1997,
      "scheinlich": 1998,
      "Ã¶rper": 1999,
      "urs": 2000,
      "ets": 2001,
      "Ġnehmen": 2002,
      "ters": 2003,
      "aff": 2004,
      "Ġunder": 2005,
      "emein": 2006,
      "Ġatt": 2007,
      "Ġcompan": 2008,
      "Ġprocess": 2009,
      "gesch": 2010,
      "Ġenerg": 2011,
      "fte": 2012,
      "Ġnam": 2013,
      "ĠEner": 2014,
      "Ġleft": 2015,
      "ruct": 2016,
      "ric": 2017,
      "annt": 2018,
      "Ġass": 2019,
      "gh": 2020,
      "ald": 2021,
      "ird": 2022,
      "sehen": 2023,
      "ĠSchl": 2024,
      "Ġmoment": 2025,
      "ĠWissenschaft": 2026,
      "ime": 2027,
      "Ġteach": 2028,
      "Ã¤ter": 2029,
      "ĠEnde": 2030,
      "ĠMann": 2031,
      "vern": 2032,
      "Ġfood": 2033,
      "imes": 2034,
      "ouse": 2035,
      "urz": 2036,
      "up": 2037,
      "ĠMen": 2038,
      "ci": 2039,
      "Ġenough": 2040,
      "Ġfut": 2041,
      "Ġwalk": 2042,
      "reiben": 2043,
      "Ġweniger": 2044,
      "ĠGer": 2045,
      "arly": 2046,
      "Ġquite": 2047,
      "ĠChina": 2048,
      "Ġgetting": 2049,
      "nov": 2050,
      "ĠDann": 2051,
      "vir": 2052,
      "Ġdoch": 2053,
      "ĠInter": 2054,
      "icher": 2055,
      "Ġcle": 2056,
      "ĠThese": 2057,
      "Ġhead": 2058,
      "\".": 2059,
      "ĠKom": 2060,
      "Ġinteresting": 2061,
      "Ġkleinen": 2062,
      "ories": 2063,
      "Ġcomes": 2064,
      "ktur": 2065,
      "Ġcr": 2066,
      "Ġhist": 2067,
      "Ġcoll": 2068,
      "ĠÃĸ": 2069,
      "ga": 2070,
      "ĠMein": 2071,
      "ringen": 2072,
      "reen": 2073,
      "Ġsense": 2074,
      "ilen": 2075,
      "sych": 2076,
      "kunft": 2077,
      "ĠYork": 2078,
      "Ġhalf": 2079,
      "Ġvier": 2080,
      "Ġbedeutet": 2081,
      "Ġgovern": 2082,
      "ĠFamil": 2083,
      "Ġstop": 2084,
      "llt": 2085,
      "Ġprobably": 2086,
      "Ġ...": 2087,
      "Ġsocial": 2088,
      "iere": 2089,
      "uck": 2090,
      "port": 2091,
      "aupt": 2092,
      "Ġfuture": 2093,
      "esten": 2094,
      "abor": 2095,
      "Ġenergy": 2096,
      "oot": 2097,
      "ĠShe": 2098,
      "ennt": 2099,
      "usst": 2100,
      "Ġhappened": 2101,
      "line": 2102,
      "Ġunseren": 2103,
      "Ġsign": 2104,
      "ĠVers": 2105,
      "duc": 2106,
      "lieÃŁ": 2107,
      "Ġbre": 2108,
      "ĠWo": 2109,
      "ĠDenn": 2110,
      "Ġtyp": 2111,
      "ĠPol": 2112,
      "Ġprof": 2113,
      "orgen": 2114,
      "ulation": 2115,
      "Ġtimes": 2116,
      "ĠDollar": 2117,
      "ustr": 2118,
      "ĠKrank": 2119,
      "ograph": 2120,
      "ĠWor": 2121,
      "Ġerw": 2122,
      "ments": 2123,
      "cer": 2124,
      "ĠTechnologie": 2125,
      "Ġpop": 2126,
      "ĠInformation": 2127,
      "ertain": 2128,
      "cke": 2129,
      "Ã¤s": 2130,
      "ĠheiÃŁ": 2131,
      "Ġint": 2132,
      "ĠSache": 2133,
      "Ġplanet": 2134,
      "Ġbewe": 2135,
      "ole": 2136,
      "ĠKre": 2137,
      "cle": 2138,
      "hlt": 2139,
      "aces": 2140,
      "Ġgrou": 2141,
      "Ġmonth": 2142,
      "ĠEur": 2143,
      "nah": 2144,
      "Ġtalking": 2145,
      "Ġdachte": 2146,
      "iet": 2147,
      "Ġfas": 2148,
      "Ġmaking": 2149,
      "Ã¤ft": 2150,
      "ude": 2151,
      "Ã¤us": 2152,
      "Ġstuff": 2153,
      "par": 2154,
      "Ġco": 2155,
      "Ġbeste": 2156,
      "tty": 2157,
      "Ġwelche": 2158,
      "Ġcontro": 2159,
      "Ġroom": 2160,
      "ican": 2161,
      "ĠOkay": 2162,
      "Ġadd": 2163,
      "ift": 2164,
      "ĠMÃ¶glichkeit": 2165,
      "Ġbuilding": 2166,
      "ax": 2167,
      "Ġbringen": 2168,
      "Ġglobal": 2169,
      "Ġconne": 2170,
      "Ġseit": 2171,
      "Ġihm": 2172,
      "ware": 2173,
      "schl": 2174,
      "Ġser": 2175,
      "Ġsoz": 2176,
      "ister": 2177,
      "ĠHa": 2178,
      "fort": 2179,
      "ron": 2180,
      "Ġbrauchen": 2181,
      "ĠmÃ¶glich": 2182,
      "Ġkleine": 2183,
      "ĠHere": 2184,
      "ever": 2185,
      "Ġbody": 2186,
      "eder": 2187,
      "ices": 2188,
      "Ġeigentlich": 2189,
      "ĠEnergie": 2190,
      "Ġgesehen": 2191,
      "Ġdist": 2192,
      "ĠGro": 2193,
      "tem": 2194,
      "hol": 2195,
      "Ġwithout": 2196,
      "Ġcur": 2197,
      "Ġtold": 2198,
      "ĠChr": 2199,
      "halt": 2200,
      "ĠStra": 2201,
      "Ġ18": 2202,
      "man": 2203,
      "ately": 2204,
      "Ġpie": 2205,
      "ĠDesign": 2206,
      "Ġseem": 2207,
      "Ġfar": 2208,
      "hle": 2209,
      "Ġpretty": 2210,
      "Ġelect": 2211,
      "ĠMÃ¤n": 2212,
      "achsen": 2213,
      "Ġelse": 2214,
      "ior": 2215,
      "Ġhund": 2216,
      "Ġpra": 2217,
      "viron": 2218,
      "iff": 2219,
      "ether": 2220,
      "rad": 2221,
      "Ġungl": 2222,
      "ĠgroÃŁen": 2223,
      "Ġcountries": 2224,
      "Ġbeaut": 2225,
      "Ġschl": 2226,
      "ĠProble": 2227,
      "Ġdollars": 2228,
      "ĠSeite": 2229,
      "Ġlives": 2230,
      "Ġside": 2231,
      "iges": 2232,
      "Ġweek": 2233,
      "Ġcoming": 2234,
      "Ġwenig": 2235,
      "Ġreason": 2236,
      "Ġ12": 2237,
      "ĠâĢŀ": 2238,
      "esent": 2239,
      "Ġgar": 2240,
      "eten": 2241,
      "iment": 2242,
      "Ġber": 2243,
      "Ġvoll": 2244,
      "etzen": 2245,
      "ĠOb": 2246,
      "ismus": 2247,
      "Ġbusiness": 2248,
      "Ġkeep": 2249,
      "Ġanything": 2250,
      "ng": 2251,
      "Ġbad": 2252,
      "Ġpos": 2253,
      "Ġjeden": 2254,
      "\",": 2255,
      "ĠEl": 2256,
      "Ġjob": 2257,
      "Ġtop": 2258,
      "ĠZe": 2259,
      "ĠWeise": 2260,
      "ief": 2261,
      "Ġwonder": 2262,
      "Ġopp": 2263,
      "isk": 2264,
      "ĠStadt": 2265,
      "Ġ40": 2266,
      "gle": 2267,
      "ret": 2268,
      "ying": 2269,
      "ipp": 2270,
      "ional": 2271,
      "Ġret": 2272,
      "Ġfol": 2273,
      "aps": 2274,
      "opf": 2275,
      "Ġschle": 2276,
      "ĠFrau": 2277,
      "Ġallow": 2278,
      "Ġacross": 2279,
      "uring": 2280,
      "schaften": 2281,
      "itive": 2282,
      "Ġganzen": 2283,
      "ĠComputer": 2284,
      "Ġenviron": 2285,
      "richt": 2286,
      "ĠSpiel": 2287,
      "ged": 2288,
      "ĠGew": 2289,
      "ĠLet": 2290,
      "ĠBÃ¼": 2291,
      "ĠDen": 2292,
      "dent": 2293,
      "esearch": 2294,
      "Ġkeinen": 2295,
      "aun": 2296,
      "Ġmen": 2297,
      "ĠStr": 2298,
      "Ġsound": 2299,
      "chite": 2300,
      "ĠEle": 2301,
      "ĠGed": 2302,
      "Ġhoch": 2303,
      "ument": 2304,
      "Ġmatter": 2305,
      "ĠAfrica": 2306,
      "ĠauÃŁer": 2307,
      "Ġsays": 2308,
      "Ich": 2309,
      "Ġeas": 2310,
      "ionen": 2311,
      "ĠOK": 2312,
      "quen": 2313,
      "erne": 2314,
      "Ġmakes": 2315,
      "ĠWoch": 2316,
      "Ġsimple": 2317,
      "ĠEngl": 2318,
      "ĠZukunft": 2319,
      "ĠMenge": 2320,
      "ĠKar": 2321,
      "ĠNo": 2322,
      "ince": 2323,
      "iving": 2324,
      "gal": 2325,
      "mun": 2326,
      "Ġgesagt": 2327,
      "Ġhope": 2328,
      "irl": 2329,
      "ernt": 2330,
      "Ġabsol": 2331,
      "ĠGrupp": 2332,
      "nf": 2333,
      "Ġversuchen": 2334,
      "Ġje": 2335,
      "Ġscience": 2336,
      "Ġseen": 2337,
      "ĠspÃ¤ter": 2338,
      "ĠhÃ¤tte": 2339,
      "ches": 2340,
      "Ġsaw": 2341,
      "Ġliving": 2342,
      "NA": 2343,
      "Ġlater": 2344,
      "tellt": 2345,
      "Ġgest": 2346,
      "ality": 2347,
      "Ġval": 2348,
      "ĠFall": 2349,
      "emat": 2350,
      "leben": 2351,
      "Ġsoc": 2352,
      "Ġair": 2353,
      "Ġsit": 2354,
      "Ġfig": 2355,
      "Ġglauben": 2356,
      "hind": 2357,
      "most": 2358,
      "ĠÃ¤": 2359,
      "Ġasked": 2360,
      "vie": 2361,
      "Ġeduc": 2362,
      "Ġgoes": 2363,
      "Ġexperience": 2364,
      "ĠBuch": 2365,
      "ĠOrt": 2366,
      "ulture": 2367,
      "Ġparticular": 2368,
      "utes": 2369,
      "Ġhour": 2370,
      "ĠOn": 2371,
      "Ġexist": 2372,
      "Ġniem": 2373,
      "erence": 2374,
      "where": 2375,
      "Ġey": 2376,
      "ily": 2377,
      "ĠKÃ¶rper": 2378,
      "Ġprogram": 2379,
      "rieben": 2380,
      "ĠEntwick": 2381,
      "Ġhappens": 2382,
      "Ġrest": 2383,
      "undheit": 2384,
      "Ġvielen": 2385,
      "Ġbeim": 2386,
      "Ġunglaub": 2387,
      "ape": 2388,
      "Ġphot": 2389,
      "Ġhaving": 2390,
      "ĠVielen": 2391,
      "achten": 2392,
      "Ġmove": 2393,
      "Ġchar": 2394,
      "ker": 2395,
      "ator": 2396,
      "Ġlea": 2397,
      "Ġfest": 2398,
      "ders": 2399,
      "app": 2400,
      "Ġcol": 2401,
      "ĠKo": 2402,
      "Ġscient": 2403,
      "ĠAugen": 2404,
      "ĠDanke": 2405,
      "ĠLie": 2406,
      "rib": 2407,
      "Ġpicture": 2408,
      "ĠGroÃŁ": 2409,
      "work": 2410,
      "Ġoft": 2411,
      "Ġstellen": 2412,
      "ende": 2413,
      "ĠMet": 2414,
      "Ã¶l": 2415,
      "ament": 2416,
      "iety": 2417,
      "Ã¤higkeit": 2418,
      "mittel": 2419,
      "Ġways": 2420,
      "Ġkonnten": 2421,
      "ĠnÃ¤": 2422,
      "ĠDo": 2423,
      "ization": 2424,
      "Ġcomputer": 2425,
      "kte": 2426,
      "ĠMoment": 2427,
      "erein": 2428,
      "ĠNatur": 2429,
      "Ġanswer": 2430,
      "ĠQu": 2431,
      "onnen": 2432,
      "ots": 2433,
      "Ġindivid": 2434,
      "Ġfal": 2435,
      "ĠLicht": 2436,
      "einander": 2437,
      "Ġcomplete": 2438,
      "ĠheiÃŁt": 2439,
      "ene": 2440,
      "Ġsix": 2441,
      "Ġrob": 2442,
      "ants": 2443,
      "Ġeigenen": 2444,
      "Ġfamily": 2445,
      "Ġthous": 2446,
      "ĠgehÃ¶r": 2447,
      "Ġlernen": 2448,
      "racht": 2449,
      "ume": 2450,
      "athemat": 2451,
      "Ġeffect": 2452,
      "ĠBer": 2453,
      "Ġproblems": 2454,
      "Ġfunktioniert": 2455,
      "illiar": 2456,
      "stand": 2457,
      "ĠDar": 2458,
      "Ġmil": 2459,
      "Ġ25": 2460,
      "Ġirgendw": 2461,
      "ĠÃ¶ff": 2462,
      "Ġland": 2463,
      "ckt": 2464,
      "Ġindem": 2465,
      "ĠfÃ¼nf": 2466,
      "unter": 2467,
      "Ġdays": 2468,
      "Ġjedes": 2469,
      "oman": 2470,
      "Ġresearch": 2471,
      "ĠPlanet": 2472,
      "ared": 2473,
      "Ġsingle": 2474,
      "nung": 2475,
      "ĠSh": 2476,
      "Ġstre": 2477,
      "ĠSpra": 2478,
      "Ġequ": 2479,
      "Ġvir": 2480,
      "Ġlevel": 2481,
      "Ġbro": 2482,
      "Ġschaffen": 2483,
      "Ã¤ndert": 2484,
      "Ġremember": 2485,
      "Ġenvironment": 2486,
      "Ġperfe": 2487,
      "ike": 2488,
      "asse": 2489,
      "itz": 2490,
      "Ġcase": 2491,
      "Ġunt": 2492,
      "ĠZwe": 2493,
      "folg": 2494,
      "Ġcity": 2495,
      "ĠEarth": 2496,
      "Ġev": 2497,
      "Ġlangu": 2498,
      "Ã¤m": 2499,
      "zeich": 2500,
      "hrer": 2501,
      "Ġpers": 2502,
      "ĠMutter": 2503,
      "Ġloc": 2504,
      "ote": 2505,
      "ĠHaus": 2506,
      "ĠErde": 2507,
      "ĠWarum": 2508,
      "Ġble": 2509,
      "ident": 2510,
      "ĠJetzt": 2511,
      "ellschaft": 2512,
      "Ġgute": 2513,
      "reichen": 2514,
      "Ġbasically": 2515,
      "ĠProbleme": 2516,
      "ision": 2517,
      "ready": 2518,
      "Ġnutzen": 2519,
      "ĠMilliar": 2520,
      "ided": 2521,
      "Ġkomple": 2522,
      "Ġinside": 2523,
      "Ġmusic": 2524,
      "ĠProdu": 2525,
      "Ġnormal": 2526,
      "ritt": 2527,
      "zahl": 2528,
      "Ã¼h": 2529,
      "air": 2530,
      "Ġcertain": 2531,
      "zuf": 2532,
      "Ġalmost": 2533,
      "Ġpossible": 2534,
      "ruktur": 2535,
      "Ġpublic": 2536,
      "Ġbew": 2537,
      "ury": 2538,
      "ĠJo": 2539,
      "rÃ¼ck": 2540,
      "ĠRob": 2541,
      "ĠSel": 2542,
      "Ġbesond": 2543,
      "Ġyet": 2544,
      "Ġsaying": 2545,
      "iker": 2546,
      "Ġhear": 2547,
      "gefÃ¤hr": 2548,
      "Ġsure": 2549,
      "ĠWahr": 2550,
      "Ġextre": 2551,
      "Ġyoung": 2552,
      "Ġprote": 2553,
      "ĠOrgan": 2554,
      "av": 2555,
      "Ġwatch": 2556,
      "âĢľ": 2557,
      "let": 2558,
      "Ġamaz": 2559,
      "Ġonce": 2560,
      "isches": 2561,
      "Ġguy": 2562,
      "stellung": 2563,
      "Ġfund": 2564,
      "Ġseiner": 2565,
      "Ġbiolog": 2566,
      "Ġwhile": 2567,
      "ilder": 2568,
      "Ġbegan": 2569,
      "ĠGesundheit": 2570,
      "anc": 2571,
      "ption": 2572,
      "ĠUns": 2573,
      "chs": 2574,
      "ash": 2575,
      "Ġwhether": 2576,
      "ktiv": 2577,
      "ĠUSA": 2578,
      "uche": 2579,
      "Ġwahrscheinlich": 2580,
      "Ġverk": 2581,
      "Ġtot": 2582,
      "ĠKont": 2583,
      "Ġche": 2584,
      "gn": 2585,
      "iti": 2586,
      "Ġpain": 2587,
      "Ġsah": 2588,
      "ĠAng": 2589,
      "Ġexc": 2590,
      "Ġdig": 2591,
      "Ġbed": 2592,
      "Ġaller": 2593,
      "Ġhelfen": 2594,
      "ĠForm": 2595,
      "Ġallen": 2596,
      "ahlen": 2597,
      "Ġnothing": 2598,
      "ield": 2599,
      "stoff": 2600,
      "Ġalready": 2601,
      "bo": 2602,
      "Ġnet": 2603,
      "rag": 2604,
      "auer": 2605,
      "Ġcontin": 2606,
      "Ġsuc": 2607,
      "Ġdiscover": 2608,
      "Ġbillion": 2609,
      "Ġanders": 2610,
      "Ġboth": 2611,
      "Ġbeha": 2612,
      "iverse": 2613,
      "Ġwrong": 2614,
      "dle": 2615,
      "aden": 2616,
      "ĠNot": 2617,
      "Ġincred": 2618,
      "oice": 2619,
      "Ġlooked": 2620,
      "Ġbetra": 2621,
      "Ã¼nst": 2622,
      "Ġdise": 2623,
      "Ġpat": 2624,
      "Ġgenug": 2625,
      "Ġideas": 2626,
      "fahren": 2627,
      "Ġsomeone": 2628,
      "riff": 2629,
      "Ġexact": 2630,
      "ĠBo": 2631,
      "ĠPar": 2632,
      "scheid": 2633,
      "heiten": 2634,
      "Ġzeigt": 2635,
      "Ġwithin": 2636,
      "ĠschÃ¶n": 2637,
      "Ġself": 2638,
      "so": 2639,
      "inz": 2640,
      "Ġline": 2641,
      "Ã¶t": 2642,
      "Ġunserem": 2643,
      "âĢĻ": 2644,
      "chmal": 2645,
      "ush": 2646,
      "Ġpatient": 2647,
      "Ġneuen": 2648,
      "ases": 2649,
      "Ġherum": 2650,
      "ĠerzÃ¤hlen": 2651,
      "Ġlange": 2652,
      "ĠDNA": 2653,
      "glichen": 2654,
      "Ġtreat": 2655,
      "ife": 2656,
      "Ġcommunity": 2657,
      "ages": 2658,
      "side": 2659,
      "Ġlooks": 2660,
      "ĠWhy": 2661,
      "unst": 2662,
      "Ġproduct": 2663,
      "Ġweg": 2664,
      "ĠEver": 2665,
      "denken": 2666,
      "ĠnÃ¤chsten": 2667,
      "Ġcontrol": 2668,
      "iful": 2669,
      "Ġhistory": 2670,
      "inter": 2671,
      "inen": 2672,
      "ĠBed": 2673,
      "ogn": 2674,
      "Ġmyself": 2675,
      "Ġinvest": 2676,
      "gleich": 2677,
      "Ġterm": 2678,
      "Ġfrag": 2679,
      "Ġbegann": 2680,
      "Ġspeak": 2681,
      "rum": 2682,
      "Ġheart": 2683,
      "Ġkennen": 2684,
      "ĠCA": 2685,
      "Ġcells": 2686,
      "Ġoften": 2687,
      "Ġtrue": 2688,
      "Ġcost": 2689,
      "lichkeit": 2690,
      "imate": 2691,
      "osed": 2692,
      "ĠGegen": 2693,
      "welt": 2694,
      "icro": 2695,
      "Ġrecht": 2696,
      "stead": 2697,
      "Ġamazing": 2698,
      "Ġiss": 2699,
      "ention": 2700,
      "Ġheard": 2701,
      "ĠPatient": 2702,
      "aby": 2703,
      "ĠSchul": 2704,
      "Ġkne": 2705,
      "Ġdev": 2706,
      "wend": 2707,
      "arten": 2708,
      "ĠTod": 2709,
      "Ġrichtig": 2710,
      "Ġorder": 2711,
      "Ġwus": 2712,
      "Ġverd": 2713,
      "Ġcond": 2714,
      "Ġkill": 2715,
      "ĠJa": 2716,
      "Ġextra": 2717,
      "Ġchallen": 2718,
      "Ġerinn": 2719,
      "Ġwords": 2720,
      "Ã¤ren": 2721,
      "ĠungefÃ¤hr": 2722,
      "Ġjede": 2723,
      "ĠMa": 2724,
      "ĠGemein": 2725,
      "liches": 2726,
      "ĠUnited": 2727,
      "gangen": 2728,
      "Ġfigure": 2729,
      "Ġimagine": 2730,
      "fra": 2731,
      "Ġbauen": 2732,
      "Ġuniverse": 2733,
      "Ġmass": 2734,
      "Ġgirl": 2735,
      "ĠBere": 2736,
      "ĠSta": 2737,
      "ĠÃ¼": 2738,
      "Ġmar": 2739,
      "umen": 2740,
      "Ġcouple": 2741,
      "Ã¶sen": 2742,
      "ĠâĢĶ": 2743,
      "Ġur": 2744,
      "ĠNicht": 2745,
      "Ġalt": 2746,
      "ollow": 2747,
      "kennen": 2748,
      "iol": 2749,
      "vious": 2750,
      "ĠTo": 2751,
      "uchte": 2752,
      "forder": 2753,
      "Ġerf": 2754,
      "oral": 2755,
      "ivity": 2756,
      "zus": 2757,
      "Ġworks": 2758,
      "Ġtrain": 2759,
      "zieh": 2760,
      "fÃ¤": 2761,
      "ultur": 2762,
      "Ġbuilt": 2763,
      "Ġgemein": 2764,
      "chan": 2765,
      "Ġwa": 2766,
      "Ġbevor": 2767,
      "ĠKunst": 2768,
      "eah": 2769,
      "Ġnight": 2770,
      "undert": 2771,
      "ians": 2772,
      "zess": 2773,
      "Ġaff": 2774,
      "Ġmid": 2775,
      "Ġnah": 2776,
      "Ġhundred": 2777,
      "ĠSelbst": 2778,
      "Ġmonths": 2779,
      "Ġpsych": 2780,
      "Ġresult": 2781,
      "Ġliegt": 2782,
      "ituation": 2783,
      "Ġbisschen": 2784,
      "ination": 2785,
      "Ġclass": 2786,
      "less": 2787,
      "ĠProjekt": 2788,
      "fle": 2789,
      "ĠDu": 2790,
      "Ġbeautiful": 2791,
      "innen": 2792,
      "Ġentire": 2793,
      "ĠhÃ¶": 2794,
      "ĠLeuten": 2795,
      "ĠIdeen": 2796,
      "Ġage": 2797,
      "ones": 2798,
      "Ġmust": 2799,
      "Ġfriends": 2800,
      "ĠPlaneten": 2801,
      "Wh": 2802,
      "Ġmother": 2803,
      "Ġeing": 2804,
      "Ġklar": 2805,
      "Ġmot": 2806,
      "Ġseinen": 2807,
      "iting": 2808,
      "Ġinsp": 2809,
      "Ã¤re": 2810,
      "Ġcancer": 2811,
      "Ġfull": 2812,
      "Ã¤che": 2813,
      "Ġsw": 2814,
      "ĠEm": 2815,
      "ÃŁe": 2816,
      "ĠForsch": 2817,
      "ĠFÃ¤higkeit": 2818,
      "ĠMusik": 2819,
      "Ġho": 2820,
      "Ġkurz": 2821,
      "Ġsei": 2822,
      "ĠFot": 2823,
      "ĠSchule": 2824,
      "aper": 2825,
      "Ġwicht": 2826,
      "zust": 2827,
      "Ġschwer": 2828,
      "Ġgovernment": 2829,
      "Ġlink": 2830,
      "ums": 2831,
      "Ġtrad": 2832,
      "Ġsex": 2833,
      "Ġpay": 2834,
      "ĠverÃ¤ndern": 2835,
      "Ġface": 2836,
      "ĠInformationen": 2837,
      "ress": 2838,
      "ĠPunkt": 2839,
      "Ġrad": 2840,
      "spr": 2841,
      "ĠFÃ¼r": 2842,
      "ĠÃ¼berall": 2843,
      "The": 2844,
      "Ġfront": 2845,
      "Ġ60": 2846,
      "Ġlanguage": 2847,
      "ĠErfahr": 2848,
      "Ġincre": 2849,
      "Ġgroup": 2850,
      "mut": 2851,
      "Ġant": 2852,
      "llig": 2853,
      "Ġstehen": 2854,
      "Ġsagten": 2855,
      "ieht": 2856,
      "Ġinner": 2857,
      "cl": 2858,
      "Ġmaterial": 2859,
      "Ġdefin": 2860,
      "Ġpiece": 2861,
      "ired": 2862,
      "mÃ¶": 2863,
      "Ġfollow": 2864,
      "aur": 2865,
      "Ġerl": 2866,
      "Ġspecies": 2867,
      "cc": 2868,
      "nitt": 2869,
      "Ġdich": 2870,
      "Ġident": 2871,
      "outh": 2872,
      "une": 2873,
      "Ġplaces": 2874,
      "Ġisn": 2875,
      "omet": 2876,
      "ivil": 2877,
      "ĠgehÃ¶rt": 2878,
      "imens": 2879,
      "Ġlos": 2880,
      "ĠArten": 2881,
      "ĠUnternehmen": 2882,
      "Ġeverybody": 2883,
      "Ġuntil": 2884,
      "utzt": 2885,
      "ĠBet": 2886,
      "Ġwasn": 2887,
      "ĠWirtschaft": 2888,
      "Ġmodel": 2889,
      "Ġvideo": 2890,
      "ĠMÃ¤d": 2891,
      "anken": 2892,
      "Ġmarket": 2893,
      "nisse": 2894,
      "ĠKopf": 2895,
      "Ġneur": 2896,
      "lt": 2897,
      "Ġerkl": 2898,
      "ĠDem": 2899,
      "Ġterr": 2900,
      "Ġdest": 2901,
      "Ġdarum": 2902,
      "Ġappro": 2903,
      "satz": 2904,
      "Ġnennen": 2905,
      "Ġdecided": 2906,
      "lagen": 2907,
      "Ġschwier": 2908,
      "ĠAntwort": 2909,
      "por": 2910,
      "anzen": 2911,
      "ĠKrie": 2912,
      "ĠFragen": 2913,
      "Ġeducation": 2914,
      "ĠMilliarden": 2915,
      "immen": 2916,
      "Ġcompletely": 2917,
      "ested": 2918,
      "Ġeben": 2919,
      "omes": 2920,
      "ĠMÃ¤nner": 2921,
      "ering": 2922,
      "ateg": 2923,
      "Ġquick": 2924,
      "Ġ199": 2925,
      "raum": 2926,
      "Ġbehav": 2927,
      "voll": 2928,
      "Ġinnov": 2929,
      "Ġihrem": 2930,
      "uÃŁen": 2931,
      "Ġdru": 2932,
      "asst": 2933,
      "Ġreden": 2934,
      "Ġchem": 2935,
      "Ġerh": 2936,
      "Ġmusste": 2937,
      "ĠMeine": 2938,
      "met": 2939,
      "Ġanf": 2940,
      "Ġlarge": 2941,
      "ential": 2942,
      "ĠGra": 2943,
      "ĠPe": 2944,
      "ĠVie": 2945,
      "Ġspend": 2946,
      "werk": 2947,
      "ĠGebÃ¤": 2948,
      "Ġwrit": 2949,
      "Ġanderes": 2950,
      "Ġmess": 2951,
      "Ġhinter": 2952,
      "ĠDieses": 2953,
      "stit": 2954,
      "ĠStates": 2955,
      "ĠGeschichten": 2956,
      "ton": 2957,
      "izin": 2958,
      "Ġbereits": 2959,
      "Ġemot": 2960,
      "Ġstudy": 2961,
      "Ġexactly": 2962,
      "reif": 2963,
      "Ġstories": 2964,
      "Ġnature": 2965,
      "ĠGlÃ¼ck": 2966,
      "Ġ80": 2967,
      "inner": 2968,
      "Ġmiss": 2969,
      "Ġbecame": 2970,
      "ĠBes": 2971,
      "heim": 2972,
      "ibly": 2973,
      "ĠgroÃŁart": 2974,
      "kten": 2975,
      "Ġthough": 2976,
      "ĠExper": 2977,
      "Ġeuch": 2978,
      "gende": 2979,
      "ortun": 2980,
      "Ġintern": 2981,
      "ĠJahrh": 2982,
      "wohl": 2983,
      "Ġobject": 2984,
      "osph": 2985,
      "plic": 2986,
      "face": 2987,
      "ienen": 2988,
      "Ġtaking": 2989,
      "Ġword": 2990,
      "Ġhappening": 2991,
      "Ġstudents": 2992,
      "Ġanimals": 2993,
      "wor": 2994,
      "acter": 2995,
      "med": 2996,
      "Ġtool": 2997,
      "alten": 2998,
      "ielt": 2999,
      "Ġentwickelt": 3000,
      "ĠEvery": 3001,
      "Ġson": 3002,
      "ctor": 3003,
      "Ġschein": 3004,
      "Ġview": 3005,
      "Ġkinds": 3006,
      "ĠAfrika": 3007,
      "Ġknew": 3008,
      "Ġitself": 3009,
      "Ġprov": 3010,
      "ilfe": 3011,
      "ĠGoo": 3012,
      "ĠGott": 3013,
      "rieb": 3014,
      "ĠIndia": 3015,
      "Ġfragen": 3016,
      "Ġdet": 3017,
      "ĠCan": 3018,
      "Ġred": 3019,
      "Ġsens": 3020,
      "Ġoce": 3021,
      "Ġlaw": 3022,
      "ĠMode": 3023,
      "Ġerkennen": 3024,
      "ftware": 3025,
      "bed": 3026,
      "ides": 3027,
      "zept": 3028,
      "igten": 3029,
      "ĠFilm": 3030,
      "Ġerreichen": 3031,
      "ĠAmerica": 3032,
      "Ġsomebody": 3033,
      "inal": 3034,
      "Ġshare": 3035,
      "ĠMinuten": 3036,
      "Ġstruct": 3037,
      "ĠZusammen": 3038,
      "istan": 3039,
      "Ġourselves": 3040,
      "ging": 3041,
      "Ġwoman": 3042,
      "Ġsteht": 3043,
      "Ġadv": 3044,
      "Ġlearned": 3045,
      "Ġengine": 3046,
      "Ġbesonders": 3047,
      "Ġtro": 3048,
      "Ġwunder": 3049,
      "Ġsince": 3050,
      "Ġcool": 3051,
      "ĠLÃ¶s": 3052,
      "ability": 3053,
      "ĠGesellschaft": 3054,
      "Ġhalten": 3055,
      "ĠUr": 3056,
      "Ġpriv": 3057,
      "ĠMÃ¤dchen": 3058,
      "Ġoben": 3059,
      "Ġdeal": 3060,
      "Ġnamens": 3061,
      "Ġsociety": 3062,
      "Ġhouse": 3063,
      "Ġpast": 3064,
      "Ġrepr": 3065,
      "Ġsuccess": 3066,
      "uster": 3067,
      "Ġspielen": 3068,
      "ĠDi": 3069,
      "ĠNetz": 3070,
      "ively": 3071,
      "Ã¼tz": 3072,
      "bra": 3073,
      "Ġwon": 3074,
      "Ġminutes": 3075,
      "ĠVerhalten": 3076,
      "inning": 3077,
      "Ġgets": 3078,
      "icken": 3079,
      "Ġentde": 3080,
      "Ġbenutzen": 3081,
      "ĠhÃ¤tten": 3082,
      "Ġverschiedene": 3083,
      "ĠFamilie": 3084,
      "Ġsow": 3085,
      "ature": 3086,
      "Ġmem": 3087,
      "ĠGener": 3088,
      "ĠSpe": 3089,
      "Ġgerne": 3090,
      "igung": 3091,
      "fang": 3092,
      "haps": 3093,
      "Ġconf": 3094,
      "Ġseinem": 3095,
      "Ġdir": 3096,
      "ests": 3097,
      "Ġtechn": 3098,
      "Ġcomplex": 3099,
      "ommt": 3100,
      "Ġcompany": 3101,
      "ral": 3102,
      "Ġquestions": 3103,
      "immer": 3104,
      "Ġthemselves": 3105,
      "reit": 3106,
      "ĠGod": 3107,
      "Ġdep": 3108,
      "Ġav": 3109,
      "Ġalong": 3110,
      "Ġturns": 3111,
      "bare": 3112,
      "Ġsym": 3113,
      "Ġhuge": 3114,
      "Ã¤uf": 3115,
      "Ġvar": 3116,
      "ĠOder": 3117,
      "ocus": 3118,
      "Ġagainst": 3119,
      "stra": 3120,
      "Ġname": 3121,
      "Ġmachte": 3122,
      "ĠEntscheid": 3123,
      "Ġrelations": 3124,
      "Ġwind": 3125,
      "ĠKÃ¶n": 3126,
      "Ġmeet": 3127,
      "Ġstat": 3128,
      "Ġprop": 3129,
      "Ġdarin": 3130,
      "ĠIndien": 3131,
      "zug": 3132,
      "unge": 3133,
      "grund": 3134,
      "ĠhÃ¶ren": 3135,
      "Ġgame": 3136,
      "Ġrather": 3137,
      "Ġhours": 3138,
      "onne": 3139,
      "ichen": 3140,
      "indung": 3141,
      "uchten": 3142,
      "ource": 3143,
      "Ġcir": 3144,
      "Ġcolle": 3145,
      "icult": 3146,
      "ĠFol": 3147,
      "ĠFlug": 3148,
      "gung": 3149,
      "Ġna": 3150,
      "Ġones": 3151,
      "Ã¤nger": 3152,
      "Ġopportun": 3153,
      "itting": 3154,
      "Ġcreated": 3155,
      "reis": 3156,
      "Ġfree": 3157,
      "ager": 3158,
      "bild": 3159,
      "scheiden": 3160,
      "Ġcra": 3161,
      "ĠWort": 3162,
      "ĠÃ¤hn": 3163,
      "Ġfly": 3164,
      "ĠSc": 3165,
      "wards": 3166,
      "Ġbott": 3167,
      "ĠThem": 3168,
      "ĠGruppe": 3169,
      "Ġextrem": 3170,
      "ĠGoogle": 3171,
      "Ġoper": 3172,
      "ĠThen": 3173,
      "haupt": 3174,
      "liegen": 3175,
      "ished": 3176,
      "50": 3177,
      "erk": 3178,
      "Ġpot": 3179,
      "Ġstatt": 3180,
      "ĠSk": 3181,
      "Ġleast": 3182,
      "ĠHerz": 3183,
      "anten": 3184,
      "ĠMacht": 3185,
      "Ġopt": 3186,
      "ames": 3187,
      "ahn": 3188,
      "Ġcouldn": 3189,
      "Ġwohl": 3190,
      "Ġfocus": 3191,
      "ologie": 3192,
      "oter": 3193,
      "Ġpred": 3194,
      "ĠDoch": 3195,
      "Ġmeas": 3196,
      "Ġmov": 3197,
      "ĠGefÃ¼hl": 3198,
      "Ġtradition": 3199,
      "Ġrisk": 3200,
      "ĠErgeb": 3201,
      "ĠBeweg": 3202,
      "Ġworked": 3203,
      "Ġguys": 3204,
      "roll": 3205,
      "iste": 3206,
      "Ġjedem": 3207,
      "Ġsechs": 3208,
      "ump": 3209,
      "Ã¤cht": 3210,
      "Ġbraucht": 3211,
      "gramm": 3212,
      "Ġdel": 3213,
      "Ġliter": 3214,
      "neh": 3215,
      "richten": 3216,
      "ĠSÃ¼": 3217,
      "ĠRicht": 3218,
      "ĠAngst": 3219,
      "ĠSome": 3220,
      "Ġsometimes": 3221,
      "ĠBilder": 3222,
      "Ġdifficult": 3223,
      "ĠVielleicht": 3224,
      "ĠIr": 3225,
      "ĠBei": 3226,
      "Ġaud": 3227,
      "ĠAuto": 3228,
      "lieÃŁlich": 3229,
      "annte": 3230,
      "endet": 3231,
      "merk": 3232,
      "ples": 3233,
      "ĠEltern": 3234,
      "ĠFÃ¼": 3235,
      "ĠWeil": 3236,
      "lo": 3237,
      "Ġeins": 3238,
      "ĠDurch": 3239,
      "Ġlead": 3240,
      "weit": 3241,
      "Ġothers": 3242,
      "ĠAmerican": 3243,
      "ef": 3244,
      "ĠKor": 3245,
      "gestellt": 3246,
      "ĠPatienten": 3247,
      "ey": 3248,
      "Ġries": 3249,
      "Ġgesam": 3250,
      "Ġthousands": 3251,
      "ĠJahrhundert": 3252,
      "punkt": 3253,
      "esse": 3254,
      "Ġinvol": 3255,
      "Ġdisease": 3256,
      "orden": 3257,
      "Ġstate": 3258,
      "Ġvorstellen": 3259,
      "ĠSprache": 3260,
      "sh": 3261,
      "Ġange": 3262,
      "Ġearly": 3263,
      "Ġgave": 3264,
      "ĠFar": 3265,
      "Ã¼tzen": 3266,
      "iqu": 3267,
      "ĠKn": 3268,
      "ĠLin": 3269,
      "Ġ11": 3270,
      "Ġnews": 3271,
      "ined": 3272,
      "inger": 3273,
      "Ġhappy": 3274,
      "fall": 3275,
      "bes": 3276,
      "Ġhoff": 3277,
      "ĠglÃ¼ck": 3278,
      "Ġthird": 3279,
      "ams": 3280,
      "Ġredu": 3281,
      "istic": 3282,
      "fÃ¼hrt": 3283,
      "Ġanal": 3284,
      "tend": 3285,
      "Ġsystems": 3286,
      "Ġlik": 3287,
      "ĠFreund": 3288,
      "ĠFir": 3289,
      "Ġdeep": 3290,
      "Ã¤tz": 3291,
      "Ġamount": 3292,
      "Ġlots": 3293,
      "ĠAd": 3294,
      "ĠKultur": 3295,
      "illions": 3296,
      "Ġinstead": 3297,
      "osp": 3298,
      "Ġeveryone": 3299,
      "Ġlisten": 3300,
      "hler": 3301,
      "Ġpoor": 3302,
      "cul": 3303,
      "Ġhold": 3304,
      "Ġfield": 3305,
      "Ġnon": 3306,
      "Ġeinigen": 3307,
      "schnitt": 3308,
      "Ġerhalten": 3309,
      "Ġricht": 3310,
      "ĠVater": 3311,
      "ĠStunden": 3312,
      "Ġarm": 3313,
      "Ġirgendwie": 3314,
      "Ġmicro": 3315,
      "ask": 3316,
      "ekte": 3317,
      "Ġentwickeln": 3318,
      "ĠBi": 3319,
      "Ġwelt": 3320,
      "Ġeinge": 3321,
      "indet": 3322,
      "iken": 3323,
      "Ġbehavior": 3324,
      "aug": 3325,
      "ĠOh": 3326,
      "Ġverschiedenen": 3327,
      "icherheit": 3328,
      "Ġnetwork": 3329,
      "view": 3330,
      "Ã¶hn": 3331,
      "hlte": 3332,
      "Ġnatural": 3333,
      "Ã¤sst": 3334,
      "Ġbewegen": 3335,
      "uh": 3336,
      "Ġ%": 3337,
      "utions": 3338,
      "Ġbeiden": 3339,
      "igte": 3340,
      "Ġmanchmal": 3341,
      "ante": 3342,
      "antast": 3343,
      "anger": 3344,
      "Ġ16": 3345,
      "of": 3346,
      "ither": 3347,
      "zeugen": 3348,
      "apt": 3349,
      "akter": 3350,
      "cing": 3351,
      "Ġneu": 3352,
      "ĠVerÃ¤nder": 3353,
      "Ġtaken": 3354,
      "Ġfilm": 3355,
      "ĠLuft": 3356,
      "Ġarg": 3357,
      "Ġoutside": 3358,
      "ĠChar": 3359,
      "Ġrelig": 3360,
      "amera": 3361,
      "ĠBro": 3362,
      "ĠRÃ¼ck": 3363,
      "ĠStÃ¤d": 3364,
      "Ġrelationship": 3365,
      "iben": 3366,
      "Ġintell": 3367,
      "Ġbehind": 3368,
      "apan": 3369,
      "Ġwollten": 3370,
      "itions": 3371,
      "Ġdifference": 3372,
      "Ġinte": 3373,
      "ison": 3374,
      "Ã¤ten": 3375,
      "tens": 3376,
      "ried": 3377,
      "ĠfÃ¼hren": 3378,
      "Ġbestimm": 3379,
      "Ġcollect": 3380,
      "sk": 3381,
      "ĠÃ¤ndern": 3382,
      "aster": 3383,
      "Ġerk": 3384,
      "Ġpick": 3385,
      "Ġauss": 3386,
      "Ġseven": 3387,
      "Ġstell": 3388,
      "Ġblack": 3389,
      "!\"": 3390,
      "Ġrecent": 3391,
      "ehen": 3392,
      "Ġmachine": 3393,
      "Ġgenet": 3394,
      "Ġlearning": 3395,
      "Ġchanged": 3396,
      "Ã¶lker": 3397,
      "hnt": 3398,
      "ning": 3399,
      "ising": 3400,
      "Ġinteract": 3401,
      "Ġimpro": 3402,
      "ĠnÃ¤mlich": 3403,
      "Ġleg": 3404,
      "Ġclose": 3405,
      "Ġeinzige": 3406,
      "pfen": 3407,
      "system": 3408,
      "alitÃ¤t": 3409,
      "Ġang": 3410,
      "Ġcut": 3411,
      "Ġmult": 3412,
      "Ġdeath": 3413,
      "Ġvorher": 3414,
      "Ġeinzel": 3415,
      "ĠHI": 3416,
      "ĠHause": 3417,
      "Ġarea": 3418,
      "ĠEurope": 3419,
      "Ġ14": 3420,
      "ester": 3421,
      "Ġoil": 3422,
      "ĠSinn": 3423,
      "Oh": 3424,
      "St": 3425,
      "uz": 3426,
      "ony": 3427,
      "ĠMasch": 3428,
      "ĠfrÃ¼": 3429,
      "ĠMeer": 3430,
      "ĠKrebs": 3431,
      "ĠSachen": 3432,
      "alax": 3433,
      "ĠVideo": 3434,
      "ney": 3435,
      "Ġcentury": 3436,
      "Ġonline": 3437,
      "Ġunterschied": 3438,
      "ully": 3439,
      "pect": 3440,
      "wand": 3441,
      "ĠTechn": 3442,
      "ublik": 3443,
      "ĠRegierung": 3444,
      "Ġcann": 3445,
      "ĠBezieh": 3446,
      "Ġbesten": 3447,
      "lossen": 3448,
      "Ġmiddle": 3449,
      "Ġrecord": 3450,
      "Ġdein": 3451,
      "ĠverÃ¤ndert": 3452,
      "aktion": 3453,
      "hÃ¤ng": 3454,
      "Ġgreen": 3455,
      "oms": 3456,
      "imp": 3457,
      "Ġsage": 3458,
      "Ġverwenden": 3459,
      "Ġconnect": 3460,
      "uren": 3461,
      "ards": 3462,
      "Ġpattern": 3463,
      "ence": 3464,
      "Ġeher": 3465,
      "Ġ201": 3466,
      "tt": 3467,
      "Ġsuper": 3468,
      "Ġcommon": 3469,
      "Ġunglaublich": 3470,
      "ikro": 3471,
      "ĠMaterial": 3472,
      "opp": 3473,
      "ĠHIV": 3474,
      "ased": 3475,
      "ummer": 3476,
      "erweise": 3477,
      "Ġmoving": 3478,
      "Ġperhaps": 3479,
      "Ġ90": 3480,
      "Ġeyes": 3481,
      "Ġtest": 3482,
      "Ġgiven": 3483,
      "Ġeasy": 3484,
      "ĠOrganis": 3485,
      "Ġinnerhalb": 3486,
      "okrat": 3487,
      "Ġevent": 3488,
      "Ġfand": 3489,
      "unch": 3490,
      "ĠFahr": 3491,
      "Ġyourself": 3492,
      "Ġbeginnen": 3493,
      "ĠJohn": 3494,
      "rÃ¼": 3495,
      "Ġexperiment": 3496,
      "Ġmenschlichen": 3497,
      "Ġlim": 3498,
      "ĠKindern": 3499,
      "bere": 3500,
      "Ġsug": 3501,
      "Ġleave": 3502,
      "gang": 3503,
      "Ġindust": 3504,
      "ĠGebÃ¤ude": 3505,
      "ĠHÃ¶": 3506,
      "ĠZiel": 3507,
      "Ġshort": 3508,
      "ĠBeg": 3509,
      "Ġturned": 3510,
      "Ġtem": 3511,
      "Ġeight": 3512,
      "ĠKe": 3513,
      "Ġcomput": 3514,
      "ĠHeraus": 3515,
      "Ġgetan": 3516,
      "uld": 3517,
      "Ġwegen": 3518,
      "ĠStÃ¼ck": 3519,
      "ĠRoboter": 3520,
      "rew": 3521,
      "tete": 3522,
      "Ġoffen": 3523,
      "ĠÃ¼berhaupt": 3524,
      "ĠAufga": 3525,
      "ĠWerk": 3526,
      "Ġterms": 3527,
      "genommen": 3528,
      "ĠPart": 3529,
      "beite": 3530,
      "Ã¤nde": 3531,
      "ply": 3532,
      "Ġserv": 3533,
      "ufen": 3534,
      "Ġconst": 3535,
      "Ġincl": 3536,
      "Ġhands": 3537,
      "Ġexplain": 3538,
      "Ġpopulation": 3539,
      "Ġabsolute": 3540,
      "Ġjour": 3541,
      "Ġtakes": 3542,
      "eh": 3543,
      "Ġcities": 3544,
      "Ġculture": 3545,
      "ĠCl": 3546,
      "zustellen": 3547,
      "zieren": 3548,
      "aren": 3549,
      "berfl": 3550,
      "lieÃŁen": 3551,
      "Ġneeds": 3552,
      "ĠGleich": 3553,
      "andel": 3554,
      "ĠLÃ¤nder": 3555,
      "Ġbeginning": 3556,
      "ĠDieser": 3557,
      "gress": 3558,
      "Ġbreak": 3559,
      "jor": 3560,
      "wert": 3561,
      "Ġfort": 3562,
      "augh": 3563,
      "Ġobvious": 3564,
      "ana": 3565,
      "ling": 3566,
      "Ġtut": 3567,
      "Ġocc": 3568,
      "Ġlow": 3569,
      "text": 3570,
      "Ġseeing": 3571,
      "Ġfinally": 3572,
      "Ġwonderful": 3573,
      "Ġgleichen": 3574,
      "hy": 3575,
      "min": 3576,
      "Ġern": 3577,
      "Ġ17": 3578,
      "Ġinteressant": 3579,
      "ĠChris": 3580,
      "ially": 3581,
      "zy": 3582,
      "Ġpaper": 3583,
      "Ġbeob": 3584,
      "Ġfish": 3585,
      "ĠChin": 3586,
      "Ġzer": 3587,
      "ĠHar": 3588,
      "ĠJust": 3589,
      "Ġversucht": 3590,
      "Ġzwar": 3591,
      "ĠMil": 3592,
      "Ġschauen": 3593,
      "Ġarchite": 3594,
      "Ġpersonal": 3595,
      "Ġcommunic": 3596,
      "oud": 3597,
      "Ġfantast": 3598,
      "ĠMo": 3599,
      "ĠUmwelt": 3600,
      "idence": 3601,
      "Ġsozial": 3602,
      "vÃ¶lker": 3603,
      "Ġinde": 3604,
      "Ġstra": 3605,
      "Ġparts": 3606,
      "Ġcannot": 3607,
      "ĠLage": 3608,
      "Ġdesc": 3609,
      "ĠAnfang": 3610,
      "Ġfriend": 3611,
      "Ġpract": 3612,
      "lev": 3613,
      "auben": 3614,
      "Ġfather": 3615,
      "Ġlocal": 3616,
      "isieren": 3617,
      "Ġallem": 3618,
      "ĠRes": 3619,
      "haft": 3620,
      "Ġprofess": 3621,
      "Ġfundament": 3622,
      "Ġocean": 3623,
      "orie": 3624,
      "urt": 3625,
      "ĠStellen": 3626,
      "Ġduring": 3627,
      "Ġsqu": 3628,
      "Ġreach": 3629,
      "ĠKle": 3630,
      "ology": 3631,
      "ĠWochen": 3632,
      "year": 3633,
      "Ġevolution": 3634,
      "Ġimage": 3635,
      "ĠUniversum": 3636,
      "ĠFort": 3637,
      "ĠHerausforder": 3638,
      "rab": 3639,
      "Ġblue": 3640,
      "ĠWorld": 3641,
      "bte": 3642,
      "Ġster": 3643,
      "Ġill": 3644,
      "onen": 3645,
      "Ġmathemat": 3646,
      "alif": 3647,
      "ĠCar": 3648,
      "Ġlonger": 3649,
      "Ġdigital": 3650,
      "part": 3651,
      "elten": 3652,
      "Ġsimply": 3653,
      "ĠRest": 3654,
      "Ġspra": 3655,
      "Ġcompanies": 3656,
      "co": 3657,
      "ama": 3658,
      "Ġverst": 3659,
      "Ã¤ngt": 3660,
      "oten": 3661,
      "wÃ¤r": 3662,
      "ĠSu": 3663,
      "Ġcal": 3664,
      "ently": 3665,
      "Ġmole": 3666,
      "Ġrealized": 3667,
      "Ġgrand": 3668,
      "ĠBau": 3669,
      "umm": 3670,
      "ĠZum": 3671,
      "omat": 3672,
      "enne": 3673,
      "Ġpowerful": 3674,
      "haus": 3675,
      "mm": 3676,
      "Ġsat": 3677,
      "ĠJe": 3678,
      "Ġscale": 3679,
      "Ġexpect": 3680,
      "Ġtreffen": 3681,
      "Ġniemand": 3682,
      "Ġthank": 3683,
      "ĠPublik": 3684,
      "verage": 3685,
      "Ġmajor": 3686,
      "book": 3687,
      "Ġperform": 3688,
      "Ġneeded": 3689,
      "Ġaccess": 3690,
      "Ġstay": 3691,
      "agn": 3692,
      "Ġmeines": 3693,
      "Ġteam": 3694,
      "Ġmussten": 3695,
      "ĠEntwicklung": 3696,
      "pid": 3697,
      "Ġmoral": 3698,
      "oun": 3699,
      "Ġwhatever": 3700,
      "ĠProzess": 3701,
      "ziehen": 3702,
      "ĠErfahrung": 3703,
      "kÃ¼": 3704,
      "ĠTier": 3705,
      "ĠZug": 3706,
      "Ġarbeite": 3707,
      "baren": 3708,
      "Ġbereit": 3709,
      "lam": 3710,
      "ĠTiere": 3711,
      "achst": 3712,
      "ĠJapan": 3713,
      "Ġentf": 3714,
      "nahme": 3715,
      "Well": 3716,
      "ĠLehrer": 3717,
      "ove": 3718,
      "sicht": 3719,
      "Ġsize": 3720,
      "ĠKap": 3721,
      "iale": 3722,
      "Ġbir": 3723,
      "ĠTyp": 3724,
      "ĠDingen": 3725,
      "ĠMittel": 3726,
      "fully": 3727,
      "Ġsun": 3728,
      "Ġko": 3729,
      "ĠMay": 3730,
      "ĠPrÃ¤": 3731,
      "ĠNat": 3732,
      "Ġeconomic": 3733,
      "Ġple": 3734,
      "Ġkamen": 3735,
      "iziert": 3736,
      "Ġobs": 3737,
      "Ġspecial": 3738,
      "Ġrobot": 3739,
      "by": 3740,
      "Ġfore": 3741,
      "Ġtried": 3742,
      "ources": 3743,
      "Ġweitere": 3744,
      "hor": 3745,
      "lungs": 3746,
      "ahren": 3747,
      "Ġenc": 3748,
      "Ġparents": 3749,
      "ĠPeople": 3750,
      "zub": 3751,
      "ĠTages": 3752,
      "ĠnÃ¤chste": 3753,
      "ledge": 3754,
      "hood": 3755,
      "chter": 3756,
      "ĠEssen": 3757,
      "Ġwusste": 3758,
      "bel": 3759,
      "ingt": 3760,
      "ills": 3761,
      "Ġinterested": 3762,
      "ritte": 3763,
      "Ġsurv": 3764,
      "Ġsurpr": 3765,
      "af": 3766,
      "Ġpost": 3767,
      "Ġpresent": 3768,
      "bor": 3769,
      "ox": 3770,
      "auso": 3771,
      "Ġmedia": 3772,
      "ĠvÃ¶": 3773,
      "Ġ198": 3774,
      "ĠFreunde": 3775,
      "Ġfelt": 3776,
      "Ã¶tz": 3777,
      "ĠVerein": 3778,
      "Ã¤chst": 3779,
      "ĠfÃ¼hlen": 3780,
      "Ġreality": 3781,
      "cin": 3782,
      "inary": 3783,
      "Ġhol": 3784,
      "Ġconc": 3785,
      "Ġenorm": 3786,
      "fgh": 3787,
      "ĠSeit": 3788,
      "ĠGrunde": 3789,
      "ĠTrans": 3790,
      "Ġerre": 3791,
      "Ġokay": 3792,
      "Ġbuy": 3793,
      "ĠKlim": 3794,
      "isse": 3795,
      "ĠJob": 3796,
      "Ġ13": 3797,
      "Ġorig": 3798,
      "Ġ21": 3799,
      "acy": 3800,
      "ĠGeschÃ¤ft": 3801,
      "Ġperfect": 3802,
      "ĠSicherheit": 3803,
      "Ġviol": 3804,
      "Ġverste": 3805,
      "Ġjo": 3806,
      "ĠRei": 3807,
      "Ġground": 3808,
      "Ġsolche": 3809,
      "Ġquickly": 3810,
      "ised": 3811,
      "annten": 3812,
      "schaffen": 3813,
      "Ġfeed": 3814,
      "Ġpress": 3815,
      "anach": 3816,
      "ĠPap": 3817,
      "antwort": 3818,
      "ibility": 3819,
      "icks": 3820,
      "ails": 3821,
      "cially": 3822,
      "hÃ¤lt": 3823,
      "Ġgone": 3824,
      "Ġrecogn": 3825,
      "Ġ70": 3826,
      "iot": 3827,
      "Ġunten": 3828,
      "orth": 3829,
      "Ġstrong": 3830,
      "Ġbel": 3831,
      "Ġarchitect": 3832,
      "sent": 3833,
      "Ġsend": 3834,
      "udden": 3835,
      "Ġdark": 3836,
      "Ġeigene": 3837,
      "Ġschlecht": 3838,
      "ĠVir": 3839,
      "ĠStruktur": 3840,
      "rieden": 3841,
      "ĠPolit": 3842,
      "Ġvalue": 3843,
      "elte": 3844,
      "Ġgrowth": 3845,
      "Ġmenschliche": 3846,
      "Ġsupport": 3847,
      "ĠMarkt": 3848,
      "hnen": 3849,
      "itter": 3850,
      "Ġworden": 3851,
      "Ġfalsch": 3852,
      "zial": 3853,
      "sein": 3854,
      "ĠWeb": 3855,
      "fghan": 3856,
      "ele": 3857,
      "aring": 3858,
      "Ġability": 3859,
      "Ġspent": 3860,
      "Ġfu": 3861,
      "omin": 3862,
      "Ġrequ": 3863,
      "Ġunters": 3864,
      "ĠUnterschied": 3865,
      "zentr": 3866,
      "Ġerstaun": 3867,
      "cious": 3868,
      "ĠlÃ¤sst": 3869,
      "Ġhab": 3870,
      "Ġderen": 3871,
      "ived": 3872,
      "Ġletzte": 3873,
      "ĠMÃ¶glichkeiten": 3874,
      "ĠBoden": 3875,
      "Ġapproach": 3876,
      "ĠTage": 3877,
      "Ġhumans": 3878,
      "Ġinspir": 3879,
      "Ġfeet": 3880,
      "ban": 3881,
      "lin": 3882,
      "statt": 3883,
      "Ġjedoch": 3884,
      "Ġdamals": 3885,
      "Ġbringt": 3886,
      "ĠwÃ¤ren": 3887,
      "Ġweeks": 3888,
      "izieren": 3889,
      "Ġshows": 3890,
      "pression": 3891,
      "ĠPublikum": 3892,
      "iny": 3893,
      "Ã¤ss": 3894,
      "ĠHilfe": 3895,
      "ains": 3896,
      "ĠSek": 3897,
      "Ġcirc": 3898,
      "falls": 3899,
      "reg": 3900,
      "isiert": 3901,
      "ĠLassen": 3902,
      "ĠHaupt": 3903,
      "Ġdemoc": 3904,
      "Ġobwohl": 3905,
      "ĠNeur": 3906,
      "Ġsitting": 3907,
      "imme": 3908,
      "Ġessen": 3909,
      "Ġhervor": 3910,
      "Ġanimal": 3911,
      "ai": 3912,
      "Ġdirekt": 3913,
      "Ġopportunity": 3914,
      "Ġknown": 3915,
      "Ġgrund": 3916,
      "orning": 3917,
      "ĠvÃ¶llig": 3918,
      "ee": 3919,
      "Ġschreiben": 3920,
      "merikan": 3921,
      "Ġpolitical": 3922,
      "Ġkont": 3923,
      "You": 3924,
      "Ġeither": 3925,
      "rogen": 3926,
      "Ġkey": 3927,
      "Ġgleiche": 3928,
      "ball": 3929,
      "Ġhy": 3930,
      "ouch": 3931,
      "ĠPa": 3932,
      "Ġstark": 3933,
      "ĠNacht": 3934,
      "Ġlost": 3935,
      "ĠNein": 3936,
      "Ã¼rger": 3937,
      "Ġged": 3938,
      "izing": 3939,
      "Ġeconomy": 3940,
      "abil": 3941,
      "Ġfragte": 3942,
      "ĠThema": 3943,
      "Ã¶tzlich": 3944,
      "ĠDr": 3945,
      "Ġsurface": 3946,
      "Ġanderer": 3947,
      "ĠÃĸl": 3948,
      "ĠStaaten": 3949,
      "bon": 3950,
      "ĠApp": 3951,
      "Ġlab": 3952,
      "ĠVort": 3953,
      "Ġbleiben": 3954,
      "Ġhar": 3955,
      "ites": 3956,
      "irm": 3957,
      "Ġphone": 3958,
      "ĠMeth": 3959,
      "What": 3960,
      "Ġmeasure": 3961,
      "ales": 3962,
      "Ġinstit": 3963,
      "Ġbeein": 3964,
      "ilos": 3965,
      "ops": 3966,
      "ĠElekt": 3967,
      "ĠBereich": 3968,
      "nal": 3969,
      "zin": 3970,
      "zellen": 3971,
      "Ġfear": 3972,
      "ĠlÃ¶sen": 3973,
      "usion": 3974,
      "bert": 3975,
      "Ġmechan": 3976,
      "Ġareas": 3977,
      "ĠStand": 3978,
      "Ġdessen": 3979,
      "Ġentscheiden": 3980,
      "iction": 3981,
      "samkeit": 3982,
      "ĠWoche": 3983,
      "sc": 3984,
      "ĠInstit": 3985,
      "Ġpres": 3986,
      "fluss": 3987,
      "Ġwrite": 3988,
      "hrte": 3989,
      "ĠRight": 3990,
      "este": 3991,
      "ĠGren": 3992,
      "ĠKÃ¼": 3993,
      "ĠRo": 3994,
      "Ġneg": 3995,
      "Ġslow": 3996,
      "Ġrespons": 3997,
      "Ġbesteht": 3998,
      "Ġincredible": 3999,
      "Ġstructure": 4000,
      "flanzen": 4001,
      "Ġsollen": 4002,
      "edeut": 4003,
      "wirk": 4004,
      "Ġleaders": 4005,
      "Ġhor": 4006,
      "lex": 4007,
      "bol": 4008,
      "itzen": 4009,
      "rote": 4010,
      "cks": 4011,
      "Ã¶ÃŁe": 4012,
      "ĠMonate": 4013,
      "ĠDenken": 4014,
      "zogen": 4015,
      "Ġsuchen": 4016,
      "lef": 4017,
      "ĠPer": 4018,
      "ĠViele": 4019,
      "hÃ¶ren": 4020,
      "nahmen": 4021,
      "Ġvirt": 4022,
      "wusst": 4023,
      "stein": 4024,
      "ĠMars": 4025,
      "Ġverbess": 4026,
      "Ġconsider": 4027,
      "Ġbetrachten": 4028,
      "Ġpatients": 4029,
      "Ġbottom": 4030,
      "aught": 4031,
      "com": 4032,
      "ierend": 4033,
      "ĠPark": 4034,
      "Ġplan": 4035,
      "Ġprim": 4036,
      "ograf": 4037,
      "Ġdraw": 4038,
      "Ġdirect": 4039,
      "ĠTre": 4040,
      "ĠBen": 4041,
      "ĠNational": 4042,
      "ĠOze": 4043,
      "Ġblood": 4044,
      "ĠGedanken": 4045,
      "Ġindividu": 4046,
      "Ġschwierig": 4047,
      "ators": 4048,
      "Ġment": 4049,
      "Ġnu": 4050,
      "Ġcaus": 4051,
      "uth": 4052,
      "ades": 4053,
      "Ġmain": 4054,
      "Ġbased": 4055,
      "Ġattention": 4056,
      "Ġmorning": 4057,
      "ĠIst": 4058,
      "Ġwouldn": 4059,
      "Ġgemeinsam": 4060,
      "Ġdad": 4061,
      "Ġchanges": 4062,
      "Ġindividual": 4063,
      "Was": 4064,
      "ĠNamen": 4065,
      "ausende": 4066,
      "itze": 4067,
      "Ġed": 4068,
      "Ġeat": 4069,
      "Ġfoot": 4070,
      "Ġcover": 4071,
      "Ġbehand": 4072,
      "ĠLond": 4073,
      "Ġteilen": 4074,
      "ĠGesicht": 4075,
      "oon": 4076,
      "yl": 4077,
      "ĠSter": 4078,
      "ĠSym": 4079,
      "ĠAfghan": 4080,
      "Ġzuvor": 4081,
      "Ġgenauso": 4082,
      "Ġaverage": 4083,
      "oph": 4084,
      "ĠArchite": 4085,
      "Ġchallenge": 4086,
      "elbe": 4087,
      "ilden": 4088,
      "ĠLÃ¤ndern": 4089,
      "gebung": 4090,
      "Ġnumbers": 4091,
      "ks": 4092,
      "lang": 4093,
      "ĠWest": 4094,
      "ĠDam": 4095,
      "ustain": 4096,
      "ips": 4097,
      "Ġrealize": 4098,
      "ĠpersÃ¶n": 4099,
      "Ġbar": 4100,
      "erstÃ¶r": 4101,
      "Ġbox": 4102,
      "arbeitet": 4103,
      "Ġfunktionieren": 4104,
      "Ġpull": 4105,
      "ĠKraft": 4106,
      "Ġunivers": 4107,
      "ĠNahr": 4108,
      "use": 4109,
      "ĠMot": 4110,
      "ows": 4111,
      "ĠKr": 4112,
      "ĠZellen": 4113,
      "Ġstellt": 4114,
      "rift": 4115,
      "Ġaw": 4116,
      "ichter": 4117,
      "ĠInnov": 4118,
      "Ġsudden": 4119,
      "orge": 4120,
      "alien": 4121,
      "ĠTats": 4122,
      "ission": 4123,
      "Ġinternational": 4124,
      "ĠBra": 4125,
      "osition": 4126,
      "Ġstep": 4127,
      "ĠbenÃ¶t": 4128,
      "Ġbrought": 4129,
      "chie": 4130,
      "Ġfight": 4131,
      "ĠFern": 4132,
      "zeigt": 4133,
      "Ġclos": 4134,
      "Ġzweite": 4135,
      "frast": 4136,
      "ĠfÃ¼hrt": 4137,
      "Ġconsum": 4138,
      "ĠAutos": 4139,
      "Ġtrotz": 4140,
      "rÃ¤n": 4141,
      "Ġfall": 4142,
      "ĠermÃ¶": 4143,
      "Ġgefunden": 4144,
      "ĠFamilien": 4145,
      "wesen": 4146,
      "ĠTra": 4147,
      "Ġmodern": 4148,
      "Ġphysical": 4149,
      "ĠLÃ¶sung": 4150,
      "ĠIhren": 4151,
      "Ġcrit": 4152,
      "ustrie": 4153,
      "Ġfeeling": 4154,
      "ĠMedik": 4155,
      "ĠMikro": 4156,
      "ival": 4157,
      "Ġunseres": 4158,
      "Ġemp": 4159,
      "ances": 4160,
      "Ġlog": 4161,
      "ĠLondon": 4162,
      "finden": 4163,
      "Ġschre": 4164,
      "Ġverbunden": 4165,
      "Ġmeaning": 4166,
      "ĠLiebe": 4167,
      "We": 4168,
      "Ġborn": 4169,
      "ĠRed": 4170,
      "Ġteil": 4171,
      "ĠgrÃ¶ÃŁten": 4172,
      "Ġdeveloped": 4173,
      "kre": 4174,
      "oes": 4175,
      "ilar": 4176,
      "Ġansch": 4177,
      "Ġphotograph": 4178,
      "ĠModell": 4179,
      "inos": 4180,
      "Ġemer": 4181,
      "ĠWahl": 4182,
      "Ġsieben": 4183,
      "Ġimpact": 4184,
      "Ġsterben": 4185,
      "oid": 4186,
      "ieten": 4187,
      "atten": 4188,
      "Ġfarm": 4189,
      "Ġkn": 4190,
      "Ġkaufen": 4191,
      "ĠBar": 4192,
      "Ġcomb": 4193,
      "zeuge": 4194,
      "Ġbitte": 4195,
      "ikaner": 4196,
      "ynam": 4197,
      "Ġvol": 4198,
      "ĠEurop": 4199,
      "berflÃ¤che": 4200,
      "Ġtw": 4201,
      "bene": 4202,
      "gefÃ¼hl": 4203,
      "Ġtransform": 4204,
      "Ġgrowing": 4205,
      "druck": 4206,
      "ouble": 4207,
      "ĠOur": 4208,
      "Ġfail": 4209,
      "ĠHeute": 4210,
      "Ġkomplex": 4211,
      "vest": 4212,
      "Ġamerikan": 4213,
      "Ġknowledge": 4214,
      "Ġ500": 4215,
      "ĠEnglish": 4216,
      "Das": 4217,
      "jekte": 4218,
      "ĠFin": 4219,
      "ĠFisch": 4220,
      "ĠHoff": 4221,
      "Ġdeg": 4222,
      "Ġlangsam": 4223,
      "Ġseems": 4224,
      "Ġscheint": 4225,
      "Ġwrote": 4226,
      "isst": 4227,
      "gegen": 4228,
      "Ġforward": 4229,
      "Ġliebe": 4230,
      "ĠArbeits": 4231,
      "Ġbooks": 4232,
      "aliforn": 4233,
      "aben": 4234,
      "mosph": 4235,
      "ĠMich": 4236,
      "ĠBedeut": 4237,
      "ĠCent": 4238,
      "ollen": 4239,
      "ĠYeah": 4240,
      "ĠgrÃ¶ÃŁte": 4241,
      "Ġrunning": 4242,
      "iber": 4243,
      "licht": 4244,
      "Ġgiving": 4245,
      "ĠBest": 4246,
      "ĠVerl": 4247,
      "Ġliterally": 4248,
      "Ġsyn": 4249,
      "Ġtheory": 4250,
      "Ġhast": 4251,
      "Ġlesen": 4252,
      "ĠFrei": 4253,
      "Ġersch": 4254,
      "Ġforce": 4255,
      "ĠZahl": 4256,
      "Ġflo": 4257,
      "Ġtechnologies": 4258,
      "ĠdrauÃŁen": 4259,
      "ĠUnsere": 4260,
      "reifen": 4261,
      ".,": 4262,
      "bten": 4263,
      "ĠKat": 4264,
      "Ġwelches": 4265,
      "ĠWissenschaftler": 4266,
      "inzip": 4267,
      "zw": 4268,
      "eng": 4269,
      "Ġnice": 4270,
      "Ġnational": 4271,
      "Ã¤tze": 4272,
      "ĠGemeinschaft": 4273,
      "bau": 4274,
      "Ã¤ÃŁ": 4275,
      "ĠCO": 4276,
      "ored": 4277,
      "ĠBewegung": 4278,
      "Ġtief": 4279,
      "chsel": 4280,
      "Ã¤uft": 4281,
      "prochen": 4282,
      "Ġbeeinfl": 4283,
      "jÃ¤hr": 4284,
      "Ã¼nde": 4285,
      "Ġwhite": 4286,
      "ichtlich": 4287,
      "Ġspread": 4288,
      "Ġclimate": 4289,
      "produ": 4290,
      "res": 4291,
      "ieg": 4292,
      "Ġclear": 4293,
      "unehmen": 4294,
      "go": 4295,
      "ja": 4296,
      "Ã¼cke": 4297,
      "idge": 4298,
      "ĠRevolution": 4299,
      "ĠSehen": 4300,
      "Ġ197": 4301,
      "igkeiten": 4302,
      "Ġgebaut": 4303,
      "Ġerinnern": 4304,
      "ĠKrieg": 4305,
      "vÃ¶lkerung": 4306,
      "leep": 4307,
      "ĠWert": 4308,
      "Ġmap": 4309,
      "Ġfavor": 4310,
      "ĠÃĦr": 4311,
      "Ġscientists": 4312,
      "Ġnahm": 4313,
      "uit": 4314,
      "obody": 4315,
      "Ġverschw": 4316,
      "Ġunderstanding": 4317,
      "Ġmedic": 4318,
      "Ġhundreds": 4319,
      "In": 4320,
      "Ġign": 4321,
      "head": 4322,
      "ube": 4323,
      "estern": 4324,
      "Ġneigh": 4325,
      "ĠschlieÃŁlich": 4326,
      "ĠJed": 4327,
      "ktor": 4328,
      "Ġfair": 4329,
      "Ġstarting": 4330,
      "Ġgelernt": 4331,
      "ĠgrÃ¶ÃŁer": 4332,
      "Ġmiles": 4333,
      "jen": 4334,
      "ĠX": 4335,
      "ĠAlle": 4336,
      "entlichen": 4337,
      "ĠBrit": 4338,
      "aged": 4339,
      "Ġled": 4340,
      "ĠErw": 4341,
      "assion": 4342,
      "Ġ24": 4343,
      "Ġanyone": 4344,
      "Ġcenter": 4345,
      "ĠMag": 4346,
      "Ġgewesen": 4347,
      "Ġhine": 4348,
      "Ġvill": 4349,
      "usch": 4350,
      "olz": 4351,
      "Ġerschaffen": 4352,
      "ĠCom": 4353,
      "weis": 4354,
      "ĠMedien": 4355,
      "kraft": 4356,
      "ĠLabor": 4357,
      "Ġarr": 4358,
      "Ġcolor": 4359,
      "Ġbewusst": 4360,
      "Ã¼nstler": 4361,
      "Ġgives": 4362,
      "Ġfanden": 4363,
      "ĠSouth": 4364,
      "Ġcivil": 4365,
      "Ġrein": 4366,
      "oper": 4367,
      "agieren": 4368,
      "ĠJeder": 4369,
      "Ġleicht": 4370,
      "Ġserious": 4371,
      "Th": 4372,
      "Ġpath": 4373,
      "ochen": 4374,
      "ploy": 4375,
      "Ġprin": 4376,
      "Ġimages": 4377,
      "Ġaudience": 4378,
      "ĠglÃ¼cklich": 4379,
      "ĠNatÃ¼rlich": 4380,
      "Ġmillions": 4381,
      "Ġfert": 4382,
      "Ġsehe": 4383,
      "Ġausge": 4384,
      "Ġpassieren": 4385,
      "Ġvisual": 4386,
      "Ġcurr": 4387,
      "Ġalone": 4388,
      "ĠProgramm": 4389,
      "Ġtelling": 4390,
      "Ġtools": 4391,
      "ex": 4392,
      "Ġet": 4393,
      "Ġsoon": 4394,
      "ĠVert": 4395,
      "ĠCity": 4396,
      "ĠGef": 4397,
      "Ġbekannt": 4398,
      "zeitig": 4399,
      "Ġelectric": 4400,
      "ĠerklÃ¤ren": 4401,
      "Ġfinan": 4402,
      "ĠgegenÃ¼ber": 4403,
      "ĠReihe": 4404,
      "ĠSchritt": 4405,
      "ĠRecht": 4406,
      "Ġguess": 4407,
      "Ġbist": 4408,
      "ĠMuster": 4409,
      "ĠEis": 4410,
      "gliche": 4411,
      "ativ": 4412,
      "ores": 4413,
      "Ġsea": 4414,
      "ends": 4415,
      "Ġprom": 4416,
      "Ġ300": 4417,
      "iation": 4418,
      "put": 4419,
      "Ġice": 4420,
      "Ġmer": 4421,
      "ĠBÃ¼rger": 4422,
      "otyp": 4423,
      "Ġref": 4424,
      "blick": 4425,
      "ĠTechnik": 4426,
      "ĠTatsache": 4427,
      "ped": 4428,
      "Ġwachsen": 4429,
      "Ġjemals": 4430,
      "cond": 4431,
      "Ġhosp": 4432,
      "ĠSan": 4433,
      "ĠSol": 4434,
      "ĠTw": 4435,
      "Ġdaraus": 4436,
      "ĠDav": 4437,
      "ĠVerbindung": 4438,
      "ĠWahrheit": 4439,
      "yr": 4440,
      "Ġcars": 4441,
      "igent": 4442,
      "cker": 4443,
      "ersp": 4444,
      "Ġblock": 4445,
      "Ġunterst": 4446,
      "Ġgeworden": 4447,
      "gewÃ¶hn": 4448,
      "Ġnimmt": 4449,
      "ĠStudenten": 4450,
      "afft": 4451,
      "Ġissue": 4452,
      "Ġavail": 4453,
      "ĠSÃ¼d": 4454,
      "org": 4455,
      "inder": 4456,
      "Ġerfolg": 4457,
      "Ġdead": 4458,
      "gessen": 4459,
      "Ġhinaus": 4460,
      "Ã¤lfte": 4461,
      "Ġpolic": 4462,
      "Ġfolgen": 4463,
      "ĠÃ¼br": 4464,
      "ID": 4465,
      "Ġworth": 4466,
      "zens": 4467,
      "Ġflu": 4468,
      "Ġschwar": 4469,
      "ĠTechnologien": 4470,
      "son": 4471,
      "alter": 4472,
      "Ġdeshalb": 4473,
      "Ġtext": 4474,
      "iled": 4475,
      "hnung": 4476,
      "ĠKranken": 4477,
      "clear": 4478,
      "Ġinclud": 4479,
      "mar": 4480,
      "Ġmiteinander": 4481,
      "Ġcho": 4482,
      "Ġmache": 4483,
      "ĠAlles": 4484,
      "wirtschaft": 4485,
      "Ġtype": 4486,
      "eum": 4487,
      "iod": 4488,
      "Ġbege": 4489,
      "Ġbemer": 4490,
      "urity": 4491,
      "uchs": 4492,
      "ules": 4493,
      "wegen": 4494,
      "Ġaussehen": 4495,
      "Ġnachdem": 4496,
      "ĠmÃ¶chten": 4497,
      "Ġwissenschaft": 4498,
      "Ġ196": 4499,
      "Ġplaying": 4500,
      "Ġcreating": 4501,
      "vention": 4502,
      "Ġdevelopment": 4503,
      "Ġdiscovered": 4504,
      "Ġsustain": 4505,
      "asing": 4506,
      "ĠGem": 4507,
      "Ġneben": 4508,
      "ĠAnzahl": 4509,
      "ified": 4510,
      "Ġamong": 4511,
      "Ġtravel": 4512,
      "Ġoptim": 4513,
      "ĠRichtung": 4514,
      "bre": 4515,
      "umb": 4516,
      "Ġshowed": 4517,
      "ĠBlut": 4518,
      "Ġprotect": 4519,
      "Ġsuff": 4520,
      "Ġrevolution": 4521,
      "Ġstage": 4522,
      "ĠPlatz": 4523,
      "forsch": 4524,
      "Ġpositive": 4525,
      "Ġmovement": 4526,
      "itÃ¤ten": 4527,
      "organ": 4528,
      "ĠTatsÃ¤chlich": 4529,
      "Ġneues": 4530,
      "Ġmob": 4531,
      "Ġconcept": 4532,
      "Ġverloren": 4533,
      "Ġbeginnt": 4534,
      "Ġmom": 4535,
      "ĠBesch": 4536,
      "Ġaren": 4537,
      "Ġroad": 4538,
      "Ġkleines": 4539,
      "zeugt": 4540,
      "Ġanfangen": 4541,
      "eller": 4542,
      "Ġraus": 4543,
      "Ġoffens": 4544,
      "Ġabsolutely": 4545,
      "ĠAfghanistan": 4546,
      "Ġdro": 4547,
      "rolle": 4548,
      "Ġest": 4549,
      "ĠRad": 4550,
      "Ġdef": 4551,
      "Ã¶rter": 4552,
      "ĠMathemat": 4553,
      "icans": 4554,
      "Ġzehn": 4555,
      "Ġsimilar": 4556,
      "Ġkleiner": 4557,
      "Ġhon": 4558,
      "ĠTit": 4559,
      "ĠTem": 4560,
      "ĠBas": 4561,
      "Ġsell": 4562,
      "ĠFace": 4563,
      "ĠStre": 4564,
      "ĠEinige": 4565,
      "Ġrecently": 4566,
      "gor": 4567,
      "Ġcult": 4568,
      "Ġsofort": 4569,
      "pecially": 4570,
      "Ġhig": 4571,
      "Ġear": 4572,
      "Ã¶st": 4573,
      "Ġverm": 4574,
      "ras": 4575,
      "lebt": 4576,
      "ĠWith": 4577,
      "ĠStimme": 4578,
      "ĠErk": 4579,
      "rug": 4580,
      "Ġdeveloping": 4581,
      "Ġattack": 4582,
      "ĠProdukt": 4583,
      "Ġindustry": 4584,
      "Ġdanach": 4585,
      "Ġfalls": 4586,
      "ĠSicht": 4587,
      "Ġgezeigt": 4588,
      "Ġschrieb": 4589,
      "ĠplÃ¶tzlich": 4590,
      "Ġfindet": 4591,
      "ĠKrankheit": 4592,
      "Ġhil": 4593,
      "ĠIra": 4594,
      "ĠSom": 4595,
      "Ġspir": 4596,
      "Ġkonzentr": 4597,
      "stellt": 4598,
      "wind": 4599,
      "Ġtoll": 4600,
      "eth": 4601,
      "ĠFuÃŁ": 4602,
      "aubt": 4603,
      "Ġtalked": 4604,
      "Ġeye": 4605,
      "ĠAufgabe": 4606,
      "Ġtat": 4607,
      "Ġachie": 4608,
      "Ġeth": 4609,
      "Ġpur": 4610,
      "ĠAben": 4611,
      "Ġchance": 4612,
      "Ġresources": 4613,
      "ĠIhrem": 4614,
      "Ġstellte": 4615,
      "ĠChinese": 4616,
      "Ġentfernt": 4617,
      "ĠRis": 4618,
      "ĠViel": 4619,
      "bsite": 4620,
      "ĠDeshalb": 4621,
      "Ġincredibly": 4622,
      "gemein": 4623,
      "ered": 4624,
      "Ġsong": 4625,
      "ragen": 4626,
      "iko": 4627,
      "Ġconvers": 4628,
      "Ġtruth": 4629,
      "ĠUmgebung": 4630,
      "ĠPhys": 4631,
      "Ġissues": 4632,
      "anze": 4633,
      "Ġegal": 4634,
      "rael": 4635,
      "Ġunbe": 4636,
      "Ġguten": 4637,
      "Ġasking": 4638,
      "ĠÃĸk": 4639,
      "ĠChrist": 4640,
      "fern": 4641,
      "rig": 4642,
      "Ġacht": 4643,
      "ĠKam": 4644,
      "ctors": 4645,
      "Ġwert": 4646,
      "ĠbeschÃ¤ft": 4647,
      "ĠIhrer": 4648,
      "Ġreasons": 4649,
      "ĠGewalt": 4650,
      "ĠStÃ¤dte": 4651,
      "gorith": 4652,
      "Ġfur": 4653,
      "Ġvoice": 4654,
      "ille": 4655,
      "Sch": 4656,
      "setzen": 4657,
      "uelle": 4658,
      "xy": 4659,
      "recht": 4660,
      "Ã¼gen": 4661,
      "Ġrate": 4662,
      "Ġshape": 4663,
      "Ġgenannt": 4664,
      "auft": 4665,
      "Ġexperien": 4666,
      "Ġcop": 4667,
      "Ġcamp": 4668,
      "ĠRel": 4669,
      "ĠProf": 4670,
      "Ġentsch": 4671,
      "ĠTeile": 4672,
      "Ġperiod": 4673,
      "Ġproduce": 4674,
      "Ġbenef": 4675,
      "ĠSuper": 4676,
      "bringen": 4677,
      "enken": 4678,
      "Ġlay": 4679,
      "ĠVorstellung": 4680,
      "Ġbekommt": 4681,
      "Ġinnovation": 4682,
      "Ġweltweit": 4683,
      "ĠVerÃ¤nderung": 4684,
      "ining": 4685,
      "Ġallein": 4686,
      "ĠRolle": 4687,
      "oose": 4688,
      "Ġknows": 4689,
      "Ġavailable": 4690,
      "lim": 4691,
      "Ġinfl": 4692,
      "ĠAustr": 4693,
      "rodu": 4694,
      "Ġsever": 4695,
      "Ġaufge": 4696,
      "ĠBlick": 4697,
      "Ġfing": 4698,
      "Ġla": 4699,
      "ĠEigen": 4700,
      "Ġsold": 4701,
      "ĠArm": 4702,
      "Ã¤ndig": 4703,
      "Ġsolution": 4704,
      "ĠBildung": 4705,
      "Ġverwendet": 4706,
      "ĠBedeutung": 4707,
      "Ġwall": 4708,
      "ĠSituation": 4709,
      "Ġpack": 4710,
      "ĠJu": 4711,
      "Ã¼nden": 4712,
      "Ġinvolved": 4713,
      "Ġsituation": 4714,
      "ussen": 4715,
      "Ġhaven": 4716,
      "ĠFÃ¤": 4717,
      "teilt": 4718,
      "Ġdesigned": 4719,
      "Ġevidence": 4720,
      "Ġkomplett": 4721,
      "worten": 4722,
      "fore": 4723,
      "roffen": 4724,
      "Ġsave": 4725,
      "ĠGrÃ¶ÃŁe": 4726,
      "achstum": 4727,
      "ĠBy": 4728,
      "ĠHÃ¤lfte": 4729,
      "ĠWirklich": 4730,
      "ĠEntwicklungs": 4731,
      "ĠFacebook": 4732,
      ".âĢľ": 4733,
      "ĠtÃ¶": 4734,
      "Ġtiny": 4735,
      "Ġfire": 4736,
      "aly": 4737,
      "ĠWÃ¤hrend": 4738,
      "unktion": 4739,
      "Ġchoice": 4740,
      "ĠReise": 4741,
      "ĠTeam": 4742,
      "ritten": 4743,
      "Ġsubject": 4744,
      "ĠDemokrat": 4745,
      "Ġsonst": 4746,
      "omb": 4747,
      "ĠkÃ¼": 4748,
      "hrung": 4749,
      "ĠSchwe": 4750,
      "unkte": 4751,
      "des": 4752,
      "rate": 4753,
      "ĠiP": 4754,
      "ĠSonnen": 4755,
      "ĠTat": 4756,
      "Ġlist": 4757,
      "osystem": 4758,
      "ichtet": 4759,
      "Ġsolar": 4760,
      "Ġsolve": 4761,
      "ĠRegier": 4762,
      "Ġpictures": 4763,
      "ĠDavid": 4764,
      "aÃŁ": 4765,
      "Ġbaby": 4766,
      "Ġcy": 4767,
      "Ġsearch": 4768,
      "ĠverÃ¶ff": 4769,
      "Ġnachdenken": 4770,
      "ĠRealitÃ¤t": 4771,
      "Ġflow": 4772,
      "Ġbenutzt": 4773,
      "Ġelekt": 4774,
      "iers": 4775,
      "Ġlif": 4776,
      "ĠStat": 4777,
      "Ġbecomes": 4778,
      "ĠgefÃ¤hr": 4779,
      "Ġchanging": 4780,
      "Ġsoziale": 4781,
      "Ġmilit": 4782,
      "zufinden": 4783,
      "Ġreact": 4784,
      "Ġespecially": 4785,
      "Ġniemals": 4786,
      "yond": 4787,
      "Ġsamm": 4788,
      "ĠlÃ¤nger": 4789,
      "Ġcompassion": 4790,
      "ĠMeinung": 4791,
      "Ġhoffe": 4792,
      "itch": 4793,
      "Ġbeide": 4794,
      "ĠZent": 4795,
      "ĠErd": 4796,
      "fÃ¼hren": 4797,
      "Ġmessage": 4798,
      "Ġtouch": 4799,
      "ĠAktiv": 4800,
      "ĠHel": 4801,
      "ĠNord": 4802,
      "stens": 4803,
      "Ã¤nge": 4804,
      "Ġbigger": 4805,
      "ique": 4806,
      "ĠHerausforderung": 4807,
      "setz": 4808,
      "Ġak": 4809,
      "rel": 4810,
      "racy": 4811,
      "Ġrefle": 4812,
      "ideos": 4813,
      "Ġsmart": 4814,
      "ĠStraÃŁen": 4815,
      "Ġpredict": 4816,
      "Ġcomputers": 4817,
      "SA": 4818,
      "lage": 4819,
      "zte": 4820,
      "legt": 4821,
      "ĠBel": 4822,
      "ĠKil": 4823,
      "cts": 4824,
      "hern": 4825,
      "Ġblind": 4826,
      "ĠMex": 4827,
      "itation": 4828,
      "utage": 4829,
      "ĠErfolg": 4830,
      "ĠChem": 4831,
      "Ġcarbon": 4832,
      "Ġjemanden": 4833,
      "Ġstreet": 4834,
      "ĠFoto": 4835,
      "Ġfix": 4836,
      "isierung": 4837,
      "Ġann": 4838,
      "Ġexcept": 4839,
      "Ġputting": 4840,
      "ĠStudie": 4841,
      "Ã¤sent": 4842,
      "Ġerreicht": 4843,
      "iesen": 4844,
      "Ġult": 4845,
      "Ġyes": 4846,
      "roh": 4847,
      "Ġgeh": 4848,
      "Ġbekam": 4849,
      "inne": 4850,
      "esh": 4851,
      "agement": 4852,
      "Ġconv": 4853,
      "lied": 4854,
      "Ġfunction": 4855,
      "pfer": 4856,
      "Ġerfolgreich": 4857,
      "IDS": 4858,
      "band": 4859,
      "dlich": 4860,
      "gra": 4861,
      "ĠverrÃ¼ck": 4862,
      "olf": 4863,
      "ags": 4864,
      "ĠmÃ¶gen": 4865,
      "Ġgeneral": 4866,
      "how": 4867,
      "ĠSat": 4868,
      "ĠWind": 4869,
      "ĠKen": 4870,
      "Ġalten": 4871,
      "Ġlived": 4872,
      "Ġtotal": 4873,
      "Ġwriting": 4874,
      "ĠEntscheidungen": 4875,
      "ms": 4876,
      "Ġgingen": 4877,
      "ĠTÃ¼r": 4878,
      "Ġgroups": 4879,
      "iÃŁen": 4880,
      "wood": 4881,
      "ishing": 4882,
      "Ġtrust": 4883,
      "Ġzeige": 4884,
      "Ġmedical": 4885,
      "utzutage": 4886,
      "Ġfundamental": 4887,
      "feren": 4888,
      "mÃ¶glich": 4889,
      "arily": 4890,
      "Ġmoder": 4891,
      "ĠMitte": 4892,
      "Ġgirls": 4893,
      "Ġlikely": 4894,
      "Wir": 4895,
      "Ġlaufen": 4896,
      "ĠDor": 4897,
      "ĠSchÃ¼": 4898,
      "Ġdrive": 4899,
      "Ġziehen": 4900,
      "ĠPrinzip": 4901,
      "ected": 4902,
      "Ġtable": 4903,
      "Ġbor": 4904,
      "ĠSau": 4905,
      "room": 4906,
      "esser": 4907,
      "akes": 4908,
      "ify": 4909,
      "Ġkontroll": 4910,
      "ĠEuropa": 4911,
      "kel": 4912,
      "Ġsleep": 4913,
      "onstr": 4914,
      "Ġnine": 4915,
      "Ġdied": 4916,
      "Ġbeyond": 4917,
      "Ã¤ume": 4918,
      "Ġgegeben": 4919,
      "adem": 4920,
      "Ġdaher": 4921,
      "aking": 4922,
      "Ġsent": 4923,
      "Ġball": 4924,
      "Ġsoftware": 4925,
      "ĠFirst": 4926,
      "ĠNie": 4927,
      "Ġgek": 4928,
      "Ġprogress": 4929,
      "ĠGeist": 4930,
      "Ġgenommen": 4931,
      "Ġbestimmt": 4932,
      "ĠAmerika": 4933,
      "ĠStraÃŁe": 4934,
      "Ġlinks": 4935,
      "ĠMc": 4936,
      "ĠForschung": 4937,
      "ziert": 4938,
      "asen": 4939,
      "Ġbacter": 4940,
      "Ġfem": 4941,
      "Ġtowards": 4942,
      "Ġanc": 4943,
      "ĠPreis": 4944,
      "Ġnecess": 4945,
      "Ġlieben": 4946,
      "Ġdream": 4947,
      "Ġintegr": 4948,
      "Ġfahren": 4949,
      "Ġrules": 4950,
      "ĠÃ¼berw": 4951,
      "ĠEinz": 4952,
      "ĠMedizin": 4953,
      "ĠGeneration": 4954,
      "ĠIran": 4955,
      "Ġdram": 4956,
      "ĠSonne": 4957,
      "ĠNa": 4958,
      "ellow": 4959,
      "ĠSee": 4960,
      "Ġschneller": 4961,
      "ĠKosten": 4962,
      "ĠNorth": 4963,
      "Ġgeneration": 4964,
      "lassen": 4965,
      "ĠNur": 4966,
      "ĠVon": 4967,
      "Ã¤ngen": 4968,
      "Ġrock": 4969,
      "Ã¼ssel": 4970,
      "Ġbetrachte": 4971,
      "Ġdevice": 4972,
      "Ġseveral": 4973,
      "mung": 4974,
      "sm": 4975,
      "ĠBakter": 4976,
      "ĠEink": 4977,
      "ĠHir": 4978,
      "ĠZahlen": 4979,
      "ounds": 4980,
      "Ġmachten": 4981,
      "ously": 4982,
      "olekÃ¼": 4983,
      "jenigen": 4984,
      "oÃŁ": 4985,
      "sequen": 4986,
      "schw": 4987,
      "Ġrich": 4988,
      "Ġsetzen": 4989,
      "Ġdrugs": 4990,
      "back": 4991,
      "ford": 4992,
      "iar": 4993,
      "Ġdanger": 4994,
      "Ġwid": 4995,
      "Ġwish": 4996,
      "plant": 4997,
      "Ġinteressiert": 4998,
      "iate": 4999,
      "Ġbreat": 5000,
      "Ġevol": 5001,
      "seite": 5002,
      "ĠPsych": 5003,
      "ĠOf": 5004,
      "Ġpeace": 5005,
      "ĠMitgefÃ¼hl": 5006,
      "Ġgeschieht": 5007,
      "arbeiten": 5008,
      "Ġdrug": 5009,
      "ĠVereinigten": 5010,
      "zÃ¼": 5011,
      "ctions": 5012,
      "ienst": 5013,
      "Ġbrachte": 5014,
      "Ġspeed": 5015,
      "Ġparticularly": 5016,
      "Ġtend": 5017,
      "Ġop": 5018,
      "Ã¤llt": 5019,
      "ĠBab": 5020,
      "Ġonto": 5021,
      "imal": 5022,
      "Ã¤lter": 5023,
      "Ġherauszufinden": 5024,
      "ĠGesundheits": 5025,
      "Pro": 5026,
      "indest": 5027,
      "kehr": 5028,
      "ĠOberflÃ¤che": 5029,
      "pped": 5030,
      "Ġnachzu": 5031,
      "Ġanybody": 5032,
      "erstoff": 5033,
      "Ġgeboren": 5034,
      "ĠSchauen": 5035,
      "ĠNachrichten": 5036,
      "Ġstrateg": 5037,
      "Ġconscious": 5038,
      "Ġcapital": 5039,
      "ĠStrom": 5040,
      "ĠMaÃŁ": 5041,
      "Ġmotiv": 5042,
      "Ġca": 5043,
      "ĠDon": 5044,
      "Ġliegen": 5045,
      "Ġsounds": 5046,
      "ĠFÃ¤higkeiten": 5047,
      "ĠMaschine": 5048,
      "Ġfliegen": 5049,
      "Ġnennt": 5050,
      "teile": 5051,
      "ometer": 5052,
      "ĠHinter": 5053,
      "ĠBewusst": 5054,
      "Ġquality": 5055,
      "Ġverwand": 5056,
      "Ġfaszin": 5057,
      "bildung": 5058,
      "ĠFirma": 5059,
      "dessen": 5060,
      "piele": 5061,
      "Ġanzu": 5062,
      "Ġnear": 5063,
      "Ġmoved": 5064,
      "Ã¤tzen": 5065,
      "Ġabsolut": 5066,
      "Ġvirus": 5067,
      "stru": 5068,
      "ĠMeter": 5069,
      "ĠWhere": 5070,
      "Ġcompet": 5071,
      "Ġvision": 5072,
      "Ġcharacter": 5073,
      "wissen": 5074,
      "Ġ000": 5075,
      "Ġoh": 5076,
      "Ġstimmt": 5077,
      "Ġaction": 5078,
      "ĠJahrze": 5079,
      "ĠPapier": 5080,
      "ĠÂ": 5081,
      "Ġakt": 5082,
      "ĠSex": 5083,
      "Ġextraord": 5084,
      "Ġfrei": 5085,
      "umor": 5086,
      "Ġoffice": 5087,
      "Ġschools": 5088,
      "ĠKommun": 5089,
      "Ġpotential": 5090,
      "ĠErgebnis": 5091,
      "ĠBeziehung": 5092,
      "ĠFortsch": 5093,
      "fre": 5094,
      "gem": 5095,
      "oke": 5096,
      "itet": 5097,
      "Ġgames": 5098,
      "indungen": 5099,
      "Ġrece": 5100,
      "abhÃ¤ng": 5101,
      "ada": 5102,
      "Ġeinfache": 5103,
      "Ġbasic": 5104,
      "Ġgesamte": 5105,
      "hre": 5106,
      "win": 5107,
      "atte": 5108,
      "anda": 5109,
      "rief": 5110,
      "ĠMÃ¤nn": 5111,
      "come": 5112,
      "itor": 5113,
      "Ġpark": 5114,
      "Ġbeh": 5115,
      "Ġnein": 5116,
      "wh": 5117,
      "ĠzerstÃ¶r": 5118,
      "Ġwirtschaft": 5119,
      "antly": 5120,
      "ĠYes": 5121,
      "ological": 5122,
      "Ġshowing": 5123,
      "Ġexamples": 5124,
      "ĠFehler": 5125,
      "Ġwalking": 5126,
      "Ġobviously": 5127,
      "ĠMaybe": 5128,
      "wirkungen": 5129,
      "ta": 5130,
      "Ġdachten": 5131,
      "Ġmount": 5132,
      "Ġhit": 5133,
      "ĠDing": 5134,
      "ĠMark": 5135,
      "ĠRich": 5136,
      "auten": 5137,
      "Ġstudent": 5138,
      "Ġirgende": 5139,
      "ĠUniversity": 5140,
      "Ġbegannen": 5141,
      "bald": 5142,
      "lauf": 5143,
      "viel": 5144,
      "wÃ¼r": 5145,
      "atic": 5146,
      "Ġbank": 5147,
      "ikel": 5148,
      "flict": 5149,
      "Ġtransport": 5150,
      "Ġcertainly": 5151,
      "Ġnahe": 5152,
      "Ġsozialen": 5153,
      "Ġfurther": 5154,
      "cen": 5155,
      "ech": 5156,
      "lungen": 5157,
      "ĠWand": 5158,
      "ĠWill": 5159,
      "ĠDet": 5160,
      "Ġessent": 5161,
      "ĠHoch": 5162,
      "igens": 5163,
      "Ġlok": 5164,
      "Ġgeschrieben": 5165,
      "Ġmaterials": 5166,
      "feld": 5167,
      "ny": 5168,
      "Ġapart": 5169,
      "Ġrepl": 5170,
      "ĠKolle": 5171,
      "Ġentw": 5172,
      "Ã¼cken": 5173,
      "Ġtrack": 5174,
      "ĠIsrael": 5175,
      "ĠKarte": 5176,
      "Ġscientific": 5177,
      "bur": 5178,
      "ĠTV": 5179,
      "ette": 5180,
      "ĠverfÃ¼": 5181,
      "ĠVol": 5182,
      "Ġwichtiger": 5183,
      "nehmer": 5184,
      "merksamkeit": 5185,
      "Ġmulti": 5186,
      "Ġsprach": 5187,
      "zer": 5188,
      "ĠAfter": 5189,
      "ĠDruck": 5190,
      "Ġsepar": 5191,
      "Ġwarm": 5192,
      "Ġcontext": 5193,
      "Ġtotally": 5194,
      "onse": 5195,
      "artet": 5196,
      "ises": 5197,
      "ĠAuch": 5198,
      "Ġzuerst": 5199,
      "Ġanstatt": 5200,
      "ivitÃ¤t": 5201,
      "Ġplant": 5202,
      "ĠAny": 5203,
      "Ġgesprochen": 5204,
      "teilen": 5205,
      "ĠIslam": 5206,
      "ĠHoffnung": 5207,
      "Ġgas": 5208,
      "Ã¼hren": 5209,
      "ami": 5210,
      "Ġverurs": 5211,
      "Ġheut": 5212,
      "Ġwants": 5213,
      "gendes": 5214,
      "ĠAufmerksamkeit": 5215,
      "Ġstarts": 5216,
      "Ġ150": 5217,
      "Ġprojects": 5218,
      "Ã¤mpfen": 5219,
      "Ġchemical": 5220,
      "Ġjourney": 5221,
      "Ġmut": 5222,
      "Ġnobody": 5223,
      "ĠFrank": 5224,
      "ĠPal": 5225,
      "ĠRuss": 5226,
      "weisen": 5227,
      "Ġscreen": 5228,
      "Ġ400": 5229,
      "Ġbiggest": 5230,
      "Ġeffic": 5231,
      "Ġlargest": 5232,
      "Ġhistor": 5233,
      "Ġexciting": 5234,
      "unger": 5235,
      "ĠAlter": 5236,
      "Ġextremely": 5237,
      "bung": 5238,
      "more": 5239,
      "enk": 5240,
      "ickt": 5241,
      "ĠPflanzen": 5242,
      "Ġteachers": 5243,
      "Ġernst": 5244,
      "Die": 5245,
      "leg": 5246,
      "ĠTerr": 5247,
      "Ġdoor": 5248,
      "ĠBehand": 5249,
      "Ġeverywhere": 5250,
      "Ġtragen": 5251,
      "ĠgroÃŁer": 5252,
      "ĠGenau": 5253,
      "Ġbewegt": 5254,
      "ĠBÃ¼cher": 5255,
      "ĠPolitik": 5256,
      "stre": 5257,
      "ikal": 5258,
      "Ġgleichzeitig": 5259,
      "ĠBÃ¼ro": 5260,
      "Ġresults": 5261,
      "Ġcross": 5262,
      "schie": 5263,
      "Ġprot": 5264,
      "ĠLeiden": 5265,
      "Ġpassierte": 5266,
      "Ġparticip": 5267,
      "ĠSchulen": 5268,
      "Ġterror": 5269,
      "Ġmemory": 5270,
      "Ġhigher": 5271,
      "Ġfam": 5272,
      "isions": 5273,
      "icle": 5274,
      "Ġsahen": 5275,
      "Ġactiv": 5276,
      "ĠÃ¤hnlich": 5277,
      "Ġbald": 5278,
      "ĠAbs": 5279,
      "Ġmeant": 5280,
      "ĠWieder": 5281,
      "ĠStudien": 5282,
      "Ġrepresent": 5283,
      "Ġneighbor": 5284,
      "Ġhinein": 5285,
      "like": 5286,
      "Ġbill": 5287,
      "arf": 5288,
      "Ġcamera": 5289,
      "ĠEff": 5290,
      "ĠGruppen": 5291,
      "plicated": 5292,
      "Ġdeliver": 5293,
      "ĠfrÃ¼her": 5294,
      "kr": 5295,
      "ĠĠ": 5296,
      "ĠEd": 5297,
      "Ġnotice": 5298,
      "nete": 5299,
      "ĠReaktion": 5300,
      "ramm": 5301,
      "Ġcarry": 5302,
      "Ġregion": 5303,
      "aughter": 5304,
      "pidem": 5305,
      "ror": 5306,
      "ĠAre": 5307,
      "ĠMost": 5308,
      "ĠKan": 5309,
      "ĠKÃ¼nstler": 5310,
      "Ġjen": 5311,
      "aute": 5312,
      "ĠBevÃ¶lkerung": 5313,
      "ĠOrte": 5314,
      "Ġsecurity": 5315,
      "Ġverlassen": 5316,
      "Ġbeobachten": 5317,
      "erve": 5318,
      "Ġdynam": 5319,
      "Ġgern": 5320,
      "oming": 5321,
      "unately": 5322,
      "ĠBaby": 5323,
      "ĠRess": 5324,
      "ĠSchÃ¶n": 5325,
      "Ġverbra": 5326,
      "ĠExperiment": 5327,
      "Ġbestimmten": 5328,
      "ĠDemokratie": 5329,
      "auch": 5330,
      "Ġmember": 5331,
      "ĠFle": 5332,
      "ĠZw": 5333,
      "ourcen": 5334,
      "Ġrole": 5335,
      "Ġhappiness": 5336,
      "Ġtransl": 5337,
      "Ġwichtige": 5338,
      "ĠZugang": 5339,
      "Ġkosten": 5340,
      "ĠDorf": 5341,
      "30": 5342,
      "wasser": 5343,
      "Ġwild": 5344,
      "Ġhot": 5345,
      "Ġappl": 5346,
      "Ġboy": 5347,
      "Ġthousand": 5348,
      "Ġcontinue": 5349,
      "ĠSeiten": 5350,
      "ĠSw": 5351,
      "leist": 5352,
      "Ġlose": 5353,
      "ements": 5354,
      "erei": 5355,
      "Ġsequen": 5356,
      "ĠKreat": 5357,
      "imin": 5358,
      "ĠLos": 5359,
      "inken": 5360,
      "Ġtrial": 5361,
      "front": 5362,
      "Ġversuchte": 5363,
      "immel": 5364,
      "Ġaccount": 5365,
      "Ġsupposed": 5366,
      "Ġviolence": 5367,
      "krie": 5368,
      "Ġbee": 5369,
      "Ġjunge": 5370,
      "Ġgearbeitet": 5371,
      "ground": 5372,
      "Ġgraph": 5373,
      "Ġresponse": 5374,
      "Ġthreat": 5375,
      "ĠWÃ¶rter": 5376,
      "ĠBaum": 5377,
      "Ġansehen": 5378,
      "Ġsod": 5379,
      "ĠArmut": 5380,
      "ĠTelef": 5381,
      "Ġclean": 5382,
      "Ġjobs": 5383,
      "Ġintelligen": 5384,
      "con": 5385,
      "Ġsand": 5386,
      "teten": 5387,
      "ĠHin": 5388,
      "ĠNiger": 5389,
      "ĠSoftware": 5390,
      "altung": 5391,
      "Ġfinde": 5392,
      "ĠMonaten": 5393,
      "Ġprivate": 5394,
      "ery": 5395,
      "Ġmis": 5396,
      "Ġkur": 5397,
      "Ġkreat": 5398,
      "eless": 5399,
      "ĠBank": 5400,
      "ĠPlan": 5401,
      "underte": 5402,
      "Ġcapt": 5403,
      "Ġnamed": 5404,
      "Ġfavorite": 5405,
      "ley": 5406,
      "ĠstÃ¤ndig": 5407,
      "verty": 5408,
      "ĠEinfluss": 5409,
      "Ġkompl": 5410,
      "Ġpoverty": 5411,
      "ossible": 5412,
      "ĠRegeln": 5413,
      "ĠUniversitÃ¤t": 5414,
      "Ġtrees": 5415,
      "Ġready": 5416,
      "ĠVersuch": 5417,
      "ĠnÃ¤her": 5418,
      "Ġeventually": 5419,
      "Ġdemocracy": 5420,
      "ĠOzean": 5421,
      "Ġnar": 5422,
      "deck": 5423,
      "ĠUhr": 5424,
      "Ġconnected": 5425,
      "zeichnet": 5426,
      "Ġindividuals": 5427,
      "the": 5428,
      "Ġsil": 5429,
      "ativen": 5430,
      "ari": 5431,
      "ĠSm": 5432,
      "Ġvac": 5433,
      "Ġlern": 5434,
      "rage": 5435,
      "ĠBill": 5436,
      "peratur": 5437,
      "Ġquant": 5438,
      "ĠKontrolle": 5439,
      "Ġbirth": 5440,
      "ĠVortrag": 5441,
      "ohl": 5442,
      "zies": 5443,
      "Ġfill": 5444,
      "Ġpoll": 5445,
      "ĠTro": 5446,
      "etze": 5447,
      "ulate": 5448,
      "Ġconflict": 5449,
      "Ġ2000": 5450,
      "Ã¼tzt": 5451,
      "Ġehr": 5452,
      "Ġciti": 5453,
      "Ġvertra": 5454,
      "Ġimmed": 5455,
      "ĠSohn": 5456,
      "Ã¤chen": 5457,
      "Ġempf": 5458,
      "ĠKonzept": 5459,
      "mus": 5460,
      "isis": 5461,
      "ĠAg": 5462,
      "Ġlabor": 5463,
      "Ġext": 5464,
      "odies": 5465,
      "Ġadult": 5466,
      "ĠnatÃ¼r": 5467,
      "Ġmodels": 5468,
      "Ġwatching": 5469,
      "Ġcrazy": 5470,
      "Ġetc": 5471,
      "iegel": 5472,
      "sth": 5473,
      "ĠMorgen": 5474,
      "ĠEvolution": 5475,
      "ĠGu": 5476,
      "ĠLauf": 5477,
      "Ġaltern": 5478,
      "Ġsafe": 5479,
      "Ġactivity": 5480,
      "Ġbessere": 5481,
      "Ġfaster": 5482,
      "Ġsitzen": 5483,
      "Ġessentially": 5484,
      "uellen": 5485,
      "ĠÃ¶": 5486,
      "lei": 5487,
      "Ġcause": 5488,
      "tex": 5489,
      "ĠTrÃ¤": 5490,
      "ragt": 5491,
      "Ġmeist": 5492,
      "ĠNA": 5493,
      "abel": 5494,
      "ikation": 5495,
      "ĠMenschheit": 5496,
      "ĠMehr": 5497,
      "Ġtells": 5498,
      "Ġminds": 5499,
      "Ġurban": 5500,
      "Ġoffensichtlich": 5501,
      "mark": 5502,
      "Ġtar": 5503,
      "Ġbunch": 5504,
      "etic": 5505,
      "ĠCol": 5506,
      "Ġpassion": 5507,
      "Ġmedizin": 5508,
      "Ġverbessern": 5509,
      "Ġsource": 5510,
      "ĠSa": 5511,
      "ĠGalax": 5512,
      "vert": 5513,
      "ĠZust": 5514,
      "astic": 5515,
      "Ġplants": 5516,
      "ĠEines": 5517,
      "Ġskin": 5518,
      "Ġreturn": 5519,
      "Ġperspect": 5520,
      "Ġrichtige": 5521,
      "joy": 5522,
      "Ġgrew": 5523,
      "Ġinf": 5524,
      "Ġnied": 5525,
      "ĠAct": 5526,
      "Ġlaun": 5527,
      "ils": 5528,
      "Ġrid": 5529,
      "ĠErinner": 5530,
      "obil": 5531,
      "ĠRegen": 5532,
      "ĠNachbar": 5533,
      "ĠFranc": 5534,
      "Ġprakt": 5535,
      "Ġbleibt": 5536,
      "Ġrichtigen": 5537,
      "atory": 5538,
      "Ġmine": 5539,
      "ĠEven": 5540,
      "ĠFil": 5541,
      "Ġgehe": 5542,
      "Ġmovie": 5543,
      "Ġworse": 5544,
      "Ġclin": 5545,
      "Ġspezie": 5546,
      "ĠDaher": 5547,
      "Ġcommunities": 5548,
      "Ġposition": 5549,
      "Ġconditions": 5550,
      "Ġeinzelne": 5551,
      "Ġconcern": 5552,
      "Ġsuddenly": 5553,
      "Ġvillage": 5554,
      "IT": 5555,
      "Ġine": 5556,
      "Ġpush": 5557,
      "ĠAsp": 5558,
      "ufe": 5559,
      "Ġvergessen": 5560,
      "Ġshown": 5561,
      "ĠWho": 5562,
      "ĠOrd": 5563,
      "Ġdisapp": 5564,
      "ĠKrankheiten": 5565,
      "Ġwussten": 5566,
      "windigkeit": 5567,
      "zwe": 5568,
      "Ġbilden": 5569,
      "itte": 5570,
      "Ġgalax": 5571,
      "letz": 5572,
      "ĠWÃ¼r": 5573,
      "ilities": 5574,
      "ĠGel": 5575,
      "Ġgoal": 5576,
      "ielten": 5577,
      "hington": 5578,
      "Ġihres": 5579,
      "Ġbrains": 5580,
      "Ġ35": 5581,
      "Ġcreative": 5582,
      "ĠStelle": 5583,
      "Ġnuclear": 5584,
      "Ġinform": 5585,
      "Ġnation": 5586,
      "ĠLook": 5587,
      "abl": 5588,
      "ables": 5589,
      "Ġbuildings": 5590,
      "Ġmeth": 5591,
      "Ġaffect": 5592,
      "Ġobjects": 5593,
      "Ġhospital": 5594,
      "mp": 5595,
      "upp": 5596,
      "Ġzus": 5597,
      "Ġappear": 5598,
      "ĠAfrican": 5599,
      "Ġcollabor": 5600,
      "schlag": 5601,
      "ĠhÃ¶her": 5602,
      "Ġindeed": 5603,
      "ĠInnovation": 5604,
      "ĠRelig": 5605,
      "unt": 5606,
      "ĠMolekÃ¼": 5607,
      "ĠEast": 5608,
      "indruck": 5609,
      "Ġwaste": 5610,
      "aue": 5611,
      "Ġchoose": 5612,
      "Ġtru": 5613,
      "ĠVergangen": 5614,
      "ĠgroÃŁes": 5615,
      "ĠBeispiele": 5616,
      "Ġsorts": 5617,
      "schluss": 5618,
      "ĠPaul": 5619,
      "ration": 5620,
      "uk": 5621,
      "ĠPort": 5622,
      "imen": 5623,
      "ruption": 5624,
      "Ġrot": 5625,
      "ĠmÃ¶glichen": 5626,
      "ĠGebiet": 5627,
      "Ġcolleag": 5628,
      "bit": 5629,
      "sta": 5630,
      "ĠArab": 5631,
      "Ġlate": 5632,
      "eles": 5633,
      "Ġrele": 5634,
      "ulpt": 5635,
      "Ġsomewhere": 5636,
      "ensive": 5637,
      "aterie": 5638,
      "Ġfinding": 5639,
      "ĠWashington": 5640,
      "Ġremark": 5641,
      "Ġemotion": 5642,
      "Ġsite": 5643,
      "annen": 5644,
      "Ġphen": 5645,
      "entliche": 5646,
      "ausend": 5647,
      "Ã¶rp": 5648,
      "plex": 5649,
      "ĠSpaÃŁ": 5650,
      "Ġimpossible": 5651,
      "ĠOrten": 5652,
      "Ã¼nft": 5653,
      "tember": 5654,
      "ĠKÃ¶nnen": 5655,
      "Ġarbeitete": 5656,
      "Ġextraordinary": 5657,
      "gy": 5658,
      "ires": 5659,
      "Ġlands": 5660,
      "Ã¤gt": 5661,
      "amin": 5662,
      "plan": 5663,
      "Ġlarger": 5664,
      "Ġteacher": 5665,
      "ĠZeug": 5666,
      "ĠEngland": 5667,
      "Ġsuggest": 5668,
      "Ġanschauen": 5669,
      "Ġprinci": 5670,
      "rom": 5671,
      "uern": 5672,
      "Ġtask": 5673,
      "ĠTagen": 5674,
      "Ġdete": 5675,
      "Ġkannst": 5676,
      "prÃ¼": 5677,
      "ĠNachricht": 5678,
      "ĠGrenzen": 5679,
      "Ġmedicine": 5680,
      "ĠSchÃ¼ler": 5681,
      "ham": 5682,
      "Ġdomin": 5683,
      "ĠSer": 5684,
      "ĠGut": 5685,
      "Ġabove": 5686,
      "ĠOper": 5687,
      "abet": 5688,
      "Ġdahin": 5689,
      "Ġverlieren": 5690,
      "Ġminute": 5691,
      "ĠWohl": 5692,
      "Ġhundert": 5693,
      "ĠTwitter": 5694,
      "Ġtaught": 5695,
      "Ġlau": 5696,
      "Ġerzeugen": 5697,
      "ĠZuf": 5698,
      "abr": 5699,
      "Ġzumindest": 5700,
      "klÃ¤r": 5701,
      "Ġstress": 5702,
      "ustrial": 5703,
      "Ġaddress": 5704,
      "Ġkilled": 5705,
      "fs": 5706,
      "ued": 5707,
      "uell": 5708,
      "Ġ$": 5709,
      "Ġswe": 5710,
      "arian": 5711,
      "ĠSign": 5712,
      "ala": 5713,
      "Ġlower": 5714,
      "edom": 5715,
      "Ġdenkt": 5716,
      "Ġenjoy": 5717,
      "Ã¼ss": 5718,
      "werfen": 5719,
      "spiel": 5720,
      "Ġforms": 5721,
      "ĠGerÃ¤t": 5722,
      "Ġsignific": 5723,
      "Ġvoller": 5724,
      "Ġallowed": 5725,
      "Ġerlaubt": 5726,
      "ĠFirmen": 5727,
      "ĠWirklichkeit": 5728,
      "ĠVergangenheit": 5729,
      "Wie": 5730,
      "kon": 5731,
      "ĠTas": 5732,
      "Ġdeine": 5733,
      "Ġdiagn": 5734,
      "ĠerzÃ¤hlt": 5735,
      "ĠPriv": 5736,
      "legenheit": 5737,
      "Ġproducts": 5738,
      "Ġaussieht": 5739,
      "ĠTerror": 5740,
      "Re": 5741,
      "ender": 5742,
      "Ġsn": 5743,
      "ĠBud": 5744,
      "ĠHy": 5745,
      "Ġerg": 5746,
      "Ġcomplicated": 5747,
      "Ġdeut": 5748,
      "Ġrespond": 5749,
      "ribute": 5750,
      "Ġincluding": 5751,
      "bauen": 5752,
      "cape": 5753,
      "lern": 5754,
      "wart": 5755,
      "Ġwife": 5756,
      "rech": 5757,
      "Ġcat": 5758,
      "Ġstick": 5759,
      "Ã¼rz": 5760,
      "ĠThose": 5761,
      "ĠGesetz": 5762,
      "Ġnachzudenken": 5763,
      "ĠFrancis": 5764,
      "nder": 5765,
      "Ġdoctor": 5766,
      "Ġattra": 5767,
      "though": 5768,
      "ruction": 5769,
      "izations": 5770,
      "Ã¶rt": 5771,
      "Ġrain": 5772,
      "Ġended": 5773,
      "Ġirgendwo": 5774,
      "zusch": 5775,
      "ĠerklÃ¤r": 5776,
      "No": 5777,
      "gere": 5778,
      "iegen": 5779,
      "Ġcart": 5780,
      "Ã¼cht": 5781,
      "ĠBot": 5782,
      "verse": 5783,
      "Ġmanche": 5784,
      "osm": 5785,
      "ĠInvest": 5786,
      "ĠÃ¼berras": 5787,
      "ĠLeist": 5788,
      "Ġusually": 5789,
      "ĠGene": 5790,
      "Ġgebracht": 5791,
      "ĠWorte": 5792,
      "Ġintrodu": 5793,
      "Ġanalys": 5794,
      "Ġcases": 5795,
      "merz": 5796,
      "ured": 5797,
      "pts": 5798,
      "Ġproduzieren": 5799,
      "rÃ¤fte": 5800,
      "Ġallows": 5801,
      "Ġafford": 5802,
      "Ġincrease": 5803,
      "Ġfertig": 5804,
      "ĠBakterien": 5805,
      "ĠRichard": 5806,
      "Ġlaunch": 5807,
      "Ġecht": 5808,
      "ĠKern": 5809,
      "ĠstÃ¤r": 5810,
      "Ġalive": 5811,
      "Ġdemonstr": 5812,
      "ĠErf": 5813,
      "ĠErn": 5814,
      "Ġshift": 5815,
      "Ġinterview": 5816,
      "Ġstudies": 5817,
      "Ġarbeitet": 5818,
      "ĠKonfl": 5819,
      "Ġdiscuss": 5820,
      "ĠPersonen": 5821,
      "ĠObjekt": 5822,
      "ĠToday": 5823,
      "Ġwait": 5824,
      "Ġemotional": 5825,
      "ĠSpezies": 5826,
      "Ġtraditional": 5827,
      "Ġschreck": 5828,
      "ĠÂ»": 5829,
      "Ġtruly": 5830,
      "Ġphenomen": 5831,
      "mand": 5832,
      "mals": 5833,
      "Ġmist": 5834,
      "ĠhÃ¤uf": 5835,
      "ĠSim": 5836,
      "ĠSand": 5837,
      "erman": 5838,
      "Ġmassive": 5839,
      "Ġtraining": 5840,
      "ĠMathematik": 5841,
      "lier": 5842,
      "was": 5843,
      "Ġearth": 5844,
      "ĠEbene": 5845,
      "amb": 5846,
      "ĠHaut": 5847,
      "ĠfÃ¼hrte": 5848,
      "Ġkeiner": 5849,
      "Ġfamilies": 5850,
      "stÃ¤ndnis": 5851,
      "Ġcheck": 5852,
      "Ġexcited": 5853,
      "Ġgesamten": 5854,
      "Ġsodass": 5855,
      "fel": 5856,
      "ĠtÃ¤": 5857,
      "reiten": 5858,
      "Ġbal": 5859,
      "Ġbur": 5860,
      "Ġfine": 5861,
      "Ġpen": 5862,
      "ĠWel": 5863,
      "ĠMÃ¼": 5864,
      "icians": 5865,
      "ĠKong": 5866,
      "Ġroll": 5867,
      "Ġbeings": 5868,
      "Ġpoints": 5869,
      "ĠFeuer": 5870,
      "ĠZwei": 5871,
      "drÃ¼ck": 5872,
      "falt": 5873,
      "Â«": 5874,
      "Ġburn": 5875,
      "Ġinfe": 5876,
      "Ġkaum": 5877,
      "ĠLike": 5878,
      "Ġinterest": 5879,
      "Ġversuche": 5880,
      "Ġsolchen": 5881,
      "Ġdecision": 5882,
      "Ġolder": 5883,
      "Ġstanding": 5884,
      "Ġauthor": 5885,
      "Ġsuccessful": 5886,
      "ĠSekunden": 5887,
      "Ġtrotzdem": 5888,
      "20": 5889,
      "Ġwinz": 5890,
      "Ġmorgen": 5891,
      "Ġoxy": 5892,
      "Ġluck": 5893,
      "edia": 5894,
      "iced": 5895,
      "Ġreport": 5896,
      "Ġdoc": 5897,
      "Ġprice": 5898,
      "Ġtraf": 5899,
      "Ġstars": 5900,
      "Ġgewinnen": 5901,
      "ĠLandes": 5902,
      "Ġsymbol": 5903,
      "ĠErgebnisse": 5904,
      "Ġcritical": 5905,
      "blich": 5906,
      "pol": 5907,
      "Ġtie": 5908,
      "Ġmention": 5909,
      "isation": 5910,
      "Ġcard": 5911,
      "altet": 5912,
      "Ġkre": 5913,
      "ĠTest": 5914,
      "ĠKer": 5915,
      "ids": 5916,
      "ĠTheorie": 5917,
      "ĠVerantwort": 5918,
      "Ġgewalt": 5919,
      "Ġeinges": 5920,
      "Ġpurp": 5921,
      "dom": 5922,
      "iately": 5923,
      "Ġselt": 5924,
      "ĠSomet": 5925,
      "Ġdog": 5926,
      "Ġheutzutage": 5927,
      "ĠStamm": 5928,
      "Ġbefinden": 5929,
      "Ġsky": 5930,
      "holen": 5931,
      "Ġmental": 5932,
      "ko": 5933,
      "machen": 5934,
      "Ġthrow": 5935,
      "Ġlag": 5936,
      "Ġyeah": 5937,
      "rochen": 5938,
      "ĠHigh": 5939,
      "olly": 5940,
      "Ġupon": 5941,
      "ĠSecond": 5942,
      "ĠAmerikaner": 5943,
      "licherweise": 5944,
      "Ġretten": 5945,
      "Ġcollege": 5946,
      "Ġelectricity": 5947,
      "Ġbacteria": 5948,
      "Ġtree": 5949,
      "ingungen": 5950,
      "ĠAIDS": 5951,
      "Ġlines": 5952,
      "ckte": 5953,
      "ago": 5954,
      "Ã¤nden": 5955,
      "vented": 5956,
      "Ġprison": 5957,
      "Ġreading": 5958,
      "Ġcoun": 5959,
      "Ġcrisis": 5960,
      "Ġseries": 5961,
      "Ġbestimmte": 5962,
      "Ġconversation": 5963,
      "orben": 5964,
      "Ġnenne": 5965,
      "Ġcode": 5966,
      "Ġerschein": 5967,
      "Ġgekommen": 5968,
      "Ġsomehow": 5969,
      "isms": 5970,
      "Ġgeschehen": 5971,
      "ĠMonat": 5972,
      "Ġpieces": 5973,
      "wendung": 5974,
      "ĠEntscheidung": 5975,
      "Ġperspective": 5976,
      "kommt": 5977,
      "ser": 5978,
      "Ġcook": 5979,
      "Ġport": 5980,
      "Ã¤hlt": 5981,
      "ĠChance": 5982,
      "Ġzeigte": 5983,
      "Ġprovide": 5984,
      "Ġpatterns": 5985,
      "Ġinfluen": 5986,
      "ĠRegierungen": 5987,
      "Ġaktiv": 5988,
      "Ġinse": 5989,
      "amt": 5990,
      "ĠHÃ¤nde": 5991,
      "ĠNÃ¤": 5992,
      "astrop": 5993,
      "Ġglobalen": 5994,
      "Ġhealthy": 5995,
      "Ġspecific": 5996,
      "ĠWahrscheinlich": 5997,
      "ĠRessourcen": 5998,
      "ĠMr": 5999,
      "kelet": 6000,
      "ĠFrieden": 6001,
      "Ġvert": 6002,
      "uls": 6003,
      "ĠEinstein": 6004,
      "werke": 6005,
      "ĠIndian": 6006,
      "utzung": 6007,
      "Ġsmaller": 6008,
      "Ġrunter": 6009,
      "Ġuntersuchen": 6010,
      "Ġignor": 6011,
      "ĠDel": 6012,
      "ĠunmÃ¶glich": 6013,
      "Ġkept": 6014,
      "Ġverbinden": 6015,
      "Ġexpert": 6016,
      "Ġseconds": 6017,
      "Ġphysics": 6018,
      "Ġeinzelnen": 6019,
      "ĠGefÃ¤ng": 6020,
      "ferenz": 6021,
      "ara": 6022,
      "ingu": 6023,
      "omm": 6024,
      "Ġsele": 6025,
      "genie": 6026,
      "Ġaufre": 6027,
      "Ġrights": 6028,
      "Ġgefragt": 6029,
      "Ġautomat": 6030,
      "Ġwritten": 6031,
      "ĠNetzwerk": 6032,
      "Ġoccur": 6033,
      "ĠPrÃ¤s": 6034,
      "hang": 6035,
      "ĠSÃ¤": 6036,
      "ray": 6037,
      "Ġaufgrund": 6038,
      "Ġneun": 6039,
      "Ã¶rder": 6040,
      "Ġanywhere": 6041,
      "Ġbiology": 6042,
      "board": 6043,
      "Ġneurons": 6044,
      "Ġrecognize": 6045,
      "ios": 6046,
      "rasch": 6047,
      "wers": 6048,
      "Ġwann": 6049,
      "Ġtown": 6050,
      "Ġrund": 6051,
      "ulf": 6052,
      "ĠProte": 6053,
      "Ġletzt": 6054,
      "Ġcontent": 6055,
      "ĠImag": 6056,
      "Ġslight": 6057,
      "Ġorganization": 6058,
      "fortunately": 6059,
      "Ġtreatment": 6060,
      "ĠerhÃ¶": 6061,
      "hem": 6062,
      "ux": 6063,
      "wenden": 6064,
      "Ġpage": 6065,
      "ĠDisk": 6066,
      "iling": 6067,
      "ĠFunktion": 6068,
      "ĠPak": 6069,
      "ĠfrÃ¼h": 6070,
      "ĠBezug": 6071,
      "ĠHeim": 6072,
      "ĠGespr": 6073,
      "Ġversion": 6074,
      "ualitÃ¤t": 6075,
      "Ġhimself": 6076,
      "Ġrobots": 6077,
      "Ġriesige": 6078,
      "ĠLinie": 6079,
      "rem": 6080,
      "ĠDis": 6081,
      "ierter": 6082,
      "Ġlebt": 6083,
      "Ġactual": 6084,
      "Ġincreasing": 6085,
      "Ġentdecken": 6086,
      "Ġstraight": 6087,
      "Ġcalcul": 6088,
      "Ġmilitary": 6089,
      "dig": 6090,
      "ius": 6091,
      "pfe": 6092,
      "Ġangef": 6093,
      "ĠHall": 6094,
      "Ġalte": 6095,
      "Ġdoctors": 6096,
      "Ġexpress": 6097,
      "Ġanymore": 6098,
      "ilet": 6099,
      "ribe": 6100,
      "Ġboard": 6101,
      "Ġdepend": 6102,
      "Ġplease": 6103,
      "Ġhilft": 6104,
      "ĠKampf": 6105,
      "ĠKollegen": 6106,
      "ya": 6107,
      "Ġwes": 6108,
      "Ġmessen": 6109,
      "Ġveh": 6110,
      "ĠMIT": 6111,
      "ĠKons": 6112,
      "stelle": 6113,
      "ĠAmericans": 6114,
      "Ġprogramm": 6115,
      "ĠPartner": 6116,
      "Ġmolec": 6117,
      "Ġarchitecture": 6118,
      "pret": 6119,
      "Ġpassen": 6120,
      "ĠBus": 6121,
      "ĠChe": 6122,
      "redit": 6123,
      "Ġ45": 6124,
      "ĠPhil": 6125,
      "itude": 6126,
      "ĠgroÃŁartige": 6127,
      "Ġservice": 6128,
      "hyth": 6129,
      "pend": 6130,
      "Ġwest": 6131,
      "Ġkil": 6132,
      "ĠTimes": 6133,
      "Ġweight": 6134,
      "gener": 6135,
      "Ġrep": 6136,
      "Ġjungen": 6137,
      "Ġdesp": 6138,
      "ĠSchool": 6139,
      "assung": 6140,
      "ĠArzt": 6141,
      "ĠWhich": 6142,
      "Ġphilos": 6143,
      "Ġprec": 6144,
      "Ġherausfinden": 6145,
      "Ġeffort": 6146,
      "Ġsowohl": 6147,
      "Ġpropert": 6148,
      "Ġverstanden": 6149,
      "ĠErwachsen": 6150,
      "Ġdanke": 6151,
      "Ġdunk": 6152,
      "Ġwund": 6153,
      "Ġsor": 6154,
      "Ġbodies": 6155,
      "Ġnut": 6156,
      "Ġnerv": 6157,
      "ĠAuÃŁer": 6158,
      "ĠMond": 6159,
      "Ġwirk": 6160,
      "scht": 6161,
      "iments": 6162,
      "ĠHÃ¼": 6163,
      "aup": 6164,
      "ĠOk": 6165,
      "ĠSchla": 6166,
      "ahmen": 6167,
      "Ġgenes": 6168,
      "Ġclim": 6169,
      "ĠAuswirkungen": 6170,
      "ektive": 6171,
      "Ã¤hig": 6172,
      "lands": 6173,
      "sprÃ¼n": 6174,
      "imension": 6175,
      "ĠgroÃŁartig": 6176,
      "ĠOrdnung": 6177,
      "mÃ¤ÃŁ": 6178,
      "will": 6179,
      "aria": 6180,
      "Ġcold": 6181,
      "emand": 6182,
      "ĠzufÃ¤": 6183,
      "erences": 6184,
      "ĠJahres": 6185,
      "Ġemploy": 6186,
      "ĠDamit": 6187,
      "Ġentschieden": 6188,
      "ĠBewusstsein": 6189,
      "ec": 6190,
      "arte": 6191,
      "ĠlÃ¤uft": 6192,
      "dete": 6193,
      "key": 6194,
      "ĠKur": 6195,
      "ĠHimmel": 6196,
      "Ġerfahren": 6197,
      "Ġleisten": 6198,
      "ĠGeheim": 6199,
      "glicht": 6200,
      "Ġintelle": 6201,
      "vard": 6202,
      "zimmer": 6203,
      "Ġbab": 6204,
      "Ġhop": 6205,
      "Ġlas": 6206,
      "Ã¤te": 6207,
      "ĠBall": 6208,
      "Ġwhe": 6209,
      "Ġlegs": 6210,
      "ildet": 6211,
      "ĠEiner": 6212,
      "Ġgestellt": 6213,
      "amente": 6214,
      "ĠerzÃ¤hlte": 6215,
      "ĠhÃ¶rte": 6216,
      "Ġearlier": 6217,
      "buch": 6218,
      "grupp": 6219,
      "po": 6220,
      "zahlen": 6221,
      "onie": 6222,
      "ĠhÃ¤lt": 6223,
      "Ġfil": 6224,
      "Ġeinander": 6225,
      "aging": 6226,
      "Ġbecoming": 6227,
      "steht": 6228,
      "Ġmachines": 6229,
      "Ġzweiten": 6230,
      "Ġrand": 6231,
      "Ġgreater": 6232,
      "ĠHerr": 6233,
      "ĠFormen": 6234,
      "ĠMuseum": 6235,
      "Ã¤usch": 6236,
      "Ġpainting": 6237,
      "stoffe": 6238,
      "reitet": 6239,
      "ĠHÃ¶he": 6240,
      "Ġdadurch": 6241,
      "Es": 6242,
      "ĠWachstum": 6243,
      "ĠTraum": 6244,
      "ĠMiss": 6245,
      "Ġverfol": 6246,
      "Ġabge": 6247,
      "osh": 6248,
      "ĠSep": 6249,
      "Ġloved": 6250,
      "Ġkommun": 6251,
      "Ġdecisions": 6252,
      "Ġpolice": 6253,
      "ĠBrust": 6254,
      "Ġskills": 6255,
      "Ġstandard": 6256,
      "ieties": 6257,
      "Ġnormalerweise": 6258,
      "ĠermÃ¶glicht": 6259,
      "Ġpolicy": 6260,
      "time": 6261,
      "Ã©": 6262,
      "ĠSold": 6263,
      "ĠSinne": 6264,
      "Ġcatch": 6265,
      "ĠTal": 6266,
      "Ġweb": 6267,
      "ĠBienen": 6268,
      "ĠNor": 6269,
      "ierende": 6270,
      "Ġwilling": 6271,
      "ĠGlauben": 6272,
      "Ġclearly": 6273,
      "ĠWohn": 6274,
      "Ã¤user": 6275,
      "ĠÃ¶ffentlichen": 6276,
      "Ġrechts": 6277,
      "Ġstatist": 6278,
      "ĠFlugzeug": 6279,
      "Ġlistening": 6280,
      "iat": 6281,
      "same": 6282,
      "yle": 6283,
      "Ġfallen": 6284,
      "Ġinn": 6285,
      "ĠEre": 6286,
      "ĠPf": 6287,
      "ĠZivil": 6288,
      "Ġweren": 6289,
      "ĠAnother": 6290,
      "Ġglass": 6291,
      "Ġthroughout": 6292,
      "Ġbrother": 6293,
      "ĠÃ¼brigens": 6294,
      "Ġsammeln": 6295,
      "ipl": 6296,
      "ĠÃ¤lter": 6297,
      "ino": 6298,
      "ĠRand": 6299,
      "Ġshot": 6300,
      "acity": 6301,
      "riere": 6302,
      "Ġgeschaffen": 6303,
      "Ġeinzig": 6304,
      "Ġexpensive": 6305,
      "Ġfamiliar": 6306,
      "stÃ¤ndig": 6307,
      "gaben": 6308,
      "ĠKrankenhaus": 6309,
      "zunehmen": 6310,
      "Ġdiejenigen": 6311,
      "Ġvern": 6312,
      "Ġjump": 6313,
      "ameras": 6314,
      "Ġbestehen": 6315,
      "ĠauÃŁerhalb": 6316,
      "Ġdeterm": 6317,
      "ĠFreiheit": 6318,
      "Ġfamous": 6319,
      "atives": 6320,
      "itens": 6321,
      "Ġworry": 6322,
      "Ġtherefore": 6323,
      "ĠAngel": 6324,
      "Ġbefindet": 6325,
      "Ġsolutions": 6326,
      "ĠEntdeck": 6327,
      "Ġdrink": 6328,
      "teilung": 6329,
      "mitteln": 6330,
      "Ġcosts": 6331,
      "ĠhÃ¶ch": 6332,
      "ĠHarvard": 6333,
      "ĠMethode": 6334,
      "Ġcurrent": 6335,
      "ĠSeptember": 6336,
      "rif": 6337,
      "iner": 6338,
      "Ġdiv": 6339,
      "Ġsam": 6340,
      "anter": 6341,
      "Ġharm": 6342,
      "Ġfit": 6343,
      "ĠAme": 6344,
      "ĠWik": 6345,
      "ĠPass": 6346,
      "ctive": 6347,
      "ĠNummer": 6348,
      "Ġrange": 6349,
      "Ġcomfort": 6350,
      "Ġexh": 6351,
      "ĠErst": 6352,
      "ournal": 6353,
      "Ġmagic": 6354,
      "ĠSysteme": 6355,
      "rifft": 6356,
      "ĠFotos": 6357,
      "ĠBeziehungen": 6358,
      "tes": 6359,
      "reche": 6360,
      "leb": 6361,
      "ĠBerg": 6362,
      "Ġreich": 6363,
      "Ġunc": 6364,
      "Ġstore": 6365,
      "Ġstrug": 6366,
      "Ġforest": 6367,
      "mend": 6368,
      "Ġspect": 6369,
      "play": 6370,
      "Ġproduction": 6371,
      "Ã¼tter": 6372,
      "ĠGeburt": 6373,
      "Ġentdeckt": 6374,
      "Be": 6375,
      "lant": 6376,
      "Ġmath": 6377,
      "reten": 6378,
      "orien": 6379,
      "Ġwebsite": 6380,
      "seit": 6381,
      "ceed": 6382,
      "Ġherunter": 6383,
      "Ġhandelt": 6384,
      "ĠberÃ¼h": 6385,
      "Ġlevels": 6386,
      "mon": 6387,
      "Ġtaten": 6388,
      "Ġther": 6389,
      "Ġille": 6390,
      "Ġhell": 6391,
      "Ġantw": 6392,
      "ĠNoch": 6393,
      "Ġforth": 6394,
      "ĠschÃ¼tzen": 6395,
      "auber": 6396,
      "ained": 6397,
      "ĠVergleich": 6398,
      "Ġdivers": 6399,
      "ĠRegel": 6400,
      "reng": 6401,
      "ĠGrÃ¼nde": 6402,
      "attle": 6403,
      "arbeiter": 6404,
      "Ġinteressante": 6405,
      "Ġwaiting": 6406,
      "Ġgenetic": 6407,
      "Ġfantastic": 6408,
      "Ġpractice": 6409,
      "ĠÃĦrzte": 6410,
      "ĠImagine": 6411,
      "Ġrandom": 6412,
      "bÃ¼": 6413,
      "itat": 6414,
      "itten": 6415,
      "ĠInse": 6416,
      "Ġbisher": 6417,
      "gesetzt": 6418,
      "Ġwelcher": 6419,
      "Ġfreedom": 6420,
      "Ġfascin": 6421,
      "ĠDarwin": 6422,
      "Ġdesto": 6423,
      "ĠArchitektur": 6424,
      "Ġdangerous": 6425,
      "schiede": 6426,
      "Hey": 6427,
      "lose": 6428,
      "ĠBang": 6429,
      "Ġran": 6430,
      "ffic": 6431,
      "ĠJungen": 6432,
      "Ġspielt": 6433,
      "ĠVerfÃ¼": 6434,
      "Ã¤nomen": 6435,
      "Ġsurger": 6436,
      "ĠFluss": 6437,
      "Ġgradu": 6438,
      "Ġargument": 6439,
      "Ġintelligence": 6440,
      "Ġantwor": 6441,
      "War": 6442,
      "aries": 6443,
      "Ġcrow": 6444,
      "unÃ¤chst": 6445,
      "ĠMont": 6446,
      "ĠGal": 6447,
      "Ġwarten": 6448,
      "Ã¤hrt": 6449,
      "Ġgreatest": 6450,
      "Ġeinzigen": 6451,
      "Ġfinal": 6452,
      "Ġdirection": 6453,
      "ĠLiebl": 6454,
      "Ġtemper": 6455,
      "Ġperformance": 6456,
      "sweise": 6457,
      "Ġcele": 6458,
      "ĠKomp": 6459,
      "iding": 6460,
      "Ġlegal": 6461,
      "ads": 6462,
      "ĠIngenie": 6463,
      "Ġsaving": 6464,
      "Ġselben": 6465,
      "tragen": 6466,
      "Ġwalked": 6467,
      "Ġbeauty": 6468,
      "ĠKÃ¶nig": 6469,
      "ĠFarbe": 6470,
      "ĠMaschinen": 6471,
      "ĠBeginn": 6472,
      "Ġdescrib": 6473,
      "Ġsquare": 6474,
      "Ġbetrachtet": 6475,
      "ael": 6476,
      "oden": 6477,
      "osen": 6478,
      "sum": 6479,
      "Ġdau": 6480,
      "Ġdritte": 6481,
      "repr": 6482,
      "ĠAk": 6483,
      "Ã¤hlen": 6484,
      "Ġweap": 6485,
      "Ã¶nen": 6486,
      "ĠFakt": 6487,
      "imately": 6488,
      "ĠNorm": 6489,
      "Ã¼rf": 6490,
      "Ġrise": 6491,
      "essor": 6492,
      "Ġbrand": 6493,
      "Ġenvironmental": 6494,
      "Ã¤tzlich": 6495,
      "Ġintelligent": 6496,
      "ĠunterstÃ¼tzen": 6497,
      "iell": 6498,
      "ĠmÃ¤cht": 6499,
      "Ġfoss": 6500,
      "Ġpan": 6501,
      "ĠName": 6502,
      "ĠVier": 6503,
      "ĠCaliforn": 6504,
      "aust": 6505,
      "ĠGlob": 6506,
      "ĠKlimaw": 6507,
      "Ġhyd": 6508,
      "Ġinstitutions": 6509,
      "ĠEinzel": 6510,
      "Ġcitizens": 6511,
      "Ja": 6512,
      "Ġsus": 6513,
      "ĠWestern": 6514,
      "ĠListe": 6515,
      "uchst": 6516,
      "phone": 6517,
      "ĠfÃ¼hlte": 6518,
      "ĠIndivid": 6519,
      "Ġdecade": 6520,
      "Ġrespect": 6521,
      "Ġebenso": 6522,
      "wÃ¤rts": 6523,
      "Ġfloor": 6524,
      "Ġspirit": 6525,
      "Ġentweder": 6526,
      "ancy": 6527,
      "Ġcru": 6528,
      "ĠDrogen": 6529,
      "ĠLÃ¶": 6530,
      "ĠSchle": 6531,
      "ĠGefÃ¼": 6532,
      "Ġlief": 6533,
      "ĠComput": 6534,
      "Ġvalues": 6535,
      "Ġeffective": 6536,
      "ĠNahrung": 6537,
      "Ġimmediately": 6538,
      "hrungs": 6539,
      "Ġaufzu": 6540,
      "ĠStunde": 6541,
      "ĠGeorge": 6542,
      "Ġherstellen": 6543,
      "Ġdriving": 6544,
      "etzte": 6545,
      "ĠMuslim": 6546,
      "ĠBÃ¼hne": 6547,
      "Ġwundersch": 6548,
      "Ġmeeting": 6549,
      "ĠVertra": 6550,
      "ĠPakistan": 6551,
      "Nein": 6552,
      "iant": 6553,
      "nungen": 6554,
      "achtet": 6555,
      "schirm": 6556,
      "Ġabstra": 6557,
      "Ġshark": 6558,
      "ĠZeitpunkt": 6559,
      "ĠManchmal": 6560,
      "Ġsecret": 6561,
      "Ġprofit": 6562,
      "ĠDenk": 6563,
      "ĠOrganisation": 6564,
      "ĠTelefon": 6565,
      "ieÃŁ": 6566,
      "ieÃŁen": 6567,
      "Ġinvented": 6568,
      "Ġlad": 6569,
      "Ġwealth": 6570,
      "Ġdasselbe": 6571,
      "hers": 6572,
      "ĠIntell": 6573,
      "Ġgetroffen": 6574,
      "Ġfac": 6575,
      "ĠUnser": 6576,
      "inosaur": 6577,
      "passen": 6578,
      "erven": 6579,
      "Ġmatch": 6580,
      "ĠGerman": 6581,
      "ossen": 6582,
      "Ġplastic": 6583,
      "platz": 6584,
      "Ġguter": 6585,
      "Ġstrange": 6586,
      "ĠGehirns": 6587,
      "Ġ99": 6588,
      "Ġteaching": 6589,
      "ĠInteresse": 6590,
      "Ġtypes": 6591,
      "Ġvarious": 6592,
      "Ġgrundlegen": 6593,
      "Ġahead": 6594,
      "Ġkm": 6595,
      "alle": 6596,
      "ĠAnderson": 6597,
      "Ġerleben": 6598,
      "ostet": 6599,
      "Ġgewiss": 6600,
      "Ġdecades": 6601,
      "Ġerwarten": 6602,
      "ĠEnglisch": 6603,
      "Ġlaws": 6604,
      "Ġservices": 6605,
      "Ġencou": 6606,
      "ikt": 6607,
      "Ġinj": 6608,
      "ĠWald": 6609,
      "ĠWesten": 6610,
      "ĠTwo": 6611,
      "ĠBis": 6612,
      "ilien": 6613,
      "Ġjud": 6614,
      "ĠgrÃ¼": 6615,
      "ĠChic": 6616,
      "Ġgutes": 6617,
      "Ġincome": 6618,
      "Ġconnection": 6619,
      "uzz": 6620,
      "Ġamerikanischen": 6621,
      "ĠHirn": 6622,
      "ĠFrancisco": 6623,
      "iated": 6624,
      "kam": 6625,
      "Ġwin": 6626,
      "rees": 6627,
      "Ġrule": 6628,
      "Ġmehrere": 6629,
      "zugehen": 6630,
      "Ġhumanity": 6631,
      "Ġremind": 6632,
      "ervation": 6633,
      "Ġcareer": 6634,
      "Ġgovernments": 6635,
      "ĠErfahrungen": 6636,
      "ĠLÃ¶sungen": 6637,
      "frastruct": 6638,
      "ĠEinkommen": 6639,
      "Ġheutigen": 6640,
      "ĠBehandlung": 6641,
      "Ġneighborhood": 6642,
      "ĠCalifornia": 6643,
      "dings": 6644,
      "Ġhart": 6645,
      "Ġhinge": 6646,
      "ĠTon": 6647,
      "ĠDre": 6648,
      "ĠMid": 6649,
      "ĠEth": 6650,
      "ĠPunkte": 6651,
      "ellschaften": 6652,
      "ulieren": 6653,
      "ĠLehr": 6654,
      "Ġdeb": 6655,
      "hnte": 6656,
      "ĠArtikel": 6657,
      "Ġradio": 6658,
      "aurant": 6659,
      "ĠJahrhunderts": 6660,
      "Ġimprov": 6661,
      "Ġzero": 6662,
      "ĠEreign": 6663,
      "ĠDan": 6664,
      "ĠDrit": 6665,
      "ĠGh": 6666,
      "ĠGold": 6667,
      "osc": 6668,
      "ĠVorstell": 6669,
      "Ġwenige": 6670,
      "Ġdecide": 6671,
      "Ġapply": 6672,
      "Ġbedeuten": 6673,
      "ikanischen": 6674,
      "Ġcondition": 6675,
      "Ġerinnere": 6676,
      "imensional": 6677,
      "Ġmethod": 6678,
      "Ġcelebr": 6679,
      "uc": 6680,
      "Ġ.": 6681,
      "onent": 6682,
      "anced": 6683,
      "ĠTisch": 6684,
      "hrten": 6685,
      "ammt": 6686,
      "ĠPat": 6687,
      "ĠLernen": 6688,
      "Ġalthough": 6689,
      "Ġjene": 6690,
      "ĠCong": 6691,
      "ĠInstr": 6692,
      "ĠSchn": 6693,
      "Ġconcl": 6694,
      "apes": 6695,
      "ĠVerstÃ¤ndnis": 6696,
      "barkeit": 6697,
      "Ġinstance": 6698,
      "Ġpopular": 6699,
      "Ġfollowing": 6700,
      "ĠVerÃ¤nderungen": 6701,
      "ĠInstitution": 6702,
      "Ġbehaup": 6703,
      "Ġbabies": 6704,
      "brit": 6705,
      "ih": 6706,
      "round": 6707,
      "zul": 6708,
      "Ġvo": 6709,
      "Ġrelev": 6710,
      "Ġforget": 6711,
      "Ġuses": 6712,
      "ringt": 6713,
      "Ġuseful": 6714,
      "gefunden": 6715,
      "Ġnahmen": 6716,
      "Ġterrible": 6717,
      "ĠMedikamente": 6718,
      "Ġmobile": 6719,
      "ĠWesen": 6720,
      "urm": 6721,
      "ĠMÃ¤r": 6722,
      "gency": 6723,
      "ĠKÃ¶rp": 6724,
      "Ġerfor": 6725,
      "Ġschicken": 6726,
      "Ġspricht": 6727,
      "ĠProt": 6728,
      "ĠAmaz": 6729,
      "Ġelectron": 6730,
      "Ġchoices": 6731,
      "Ġremarkable": 6732,
      "cies": 6733,
      "Ġsad": 6734,
      "esis": 6735,
      "Ġinfrastruct": 6736,
      "ĠBig": 6737,
      "ĠFen": 6738,
      "ĠKir": 6739,
      "ĠKamera": 6740,
      "Ġord": 6741,
      "Ġblog": 6742,
      "ssystem": 6743,
      "ypoth": 6744,
      "Ġpossibly": 6745,
      "Ġverkaufen": 6746,
      "Ġebenfalls": 6747,
      "Ġenormous": 6748,
      "reprene": 6749,
      "aign": 6750,
      "iete": 6751,
      "aste": 6752,
      "Ġlaut": 6753,
      "ĠMir": 6754,
      "iles": 6755,
      "ĠKol": 6756,
      "anning": 6757,
      "ĠJul": 6758,
      "angel": 6759,
      "ĠGewe": 6760,
      "Ġtelev": 6761,
      "Ġdurchschnitt": 6762,
      "Ġsurve": 6763,
      "ĠTeilen": 6764,
      "Ġinstall": 6765,
      "ĠÃĸff": 6766,
      "Ġhonest": 6767,
      "Ġehrlich": 6768,
      "ĠwÃ¼n": 6769,
      "Ġgift": 6770,
      "arter": 6771,
      "ĠSil": 6772,
      "Ã¶se": 6773,
      "ĠGP": 6774,
      "ĠGo": 6775,
      "ĠThink": 6776,
      "ĠWege": 6777,
      "ĠYour": 6778,
      "Ġselten": 6779,
      "gebracht": 6780,
      "ĠwÃ¤hlen": 6781,
      "Ġexpand": 6782,
      "ĠPolize": 6783,
      "ĠWorten": 6784,
      "Ġeffects": 6785,
      "ĠCharles": 6786,
      "ĠJedes": 6787,
      "Warum": 6788,
      "kur": 6789,
      "masch": 6790,
      "rt": 6791,
      "wise": 6792,
      "ĠfÃ¤llt": 6793,
      "ĠSub": 6794,
      "ĠAud": 6795,
      "ĠMut": 6796,
      "ĠGrad": 6797,
      "Ġunf": 6798,
      "Ġvergleich": 6799,
      "Ġliber": 6800,
      "ĠText": 6801,
      "ĠZeiten": 6802,
      "ĠNeu": 6803,
      "Ġraise": 6804,
      "Ġcommit": 6805,
      "Ġexplor": 6806,
      "Ġ75": 6807,
      "Ġpolitics": 6808,
      "Ġflying": 6809,
      "Ġfuel": 6810,
      "ĠNigeria": 6811,
      "ĠNASA": 6812,
      "hi": 6813,
      "sichtig": 6814,
      "stÃ¼ck": 6815,
      "standen": 6816,
      "itiv": 6817,
      "Ġverhind": 6818,
      "Ġvoraus": 6819,
      "Ġanyway": 6820,
      "ients": 6821,
      "ĠHaben": 6822,
      "ĠQuad": 6823,
      "Ġchallenges": 6824,
      "aptop": 6825,
      "ĠChicago": 6826,
      "oh": 6827,
      "Ġaware": 6828,
      "Ġhous": 6829,
      "ĠIdent": 6830,
      "Ġcust": 6831,
      "Ġhair": 6832,
      "alley": 6833,
      "ĠFinger": 6834,
      "Ġuner": 6835,
      "ĠPosition": 6836,
      "ĠHund": 6837,
      "annien": 6838,
      "selben": 6839,
      "Ġtrade": 6840,
      "chnologie": 6841,
      "Ġeinfachen": 6842,
      "Ġjemandem": 6843,
      "Ġassoc": 6844,
      "Ġschlechte": 6845,
      "Ġsocieties": 6846,
      "Ġerfunden": 6847,
      "Ġgedacht": 6848,
      "frastruktur": 6849,
      "Ġfinancial": 6850,
      "ĠErkennt": 6851,
      "ĠAustral": 6852,
      "ĠVerantwortung": 6853,
      "ĠGefÃ¤ngnis": 6854,
      "RI": 6855,
      "ĠdÃ¼r": 6856,
      "Ġdauer": 6857,
      "ĠSal": 6858,
      "ĠEnd": 6859,
      "Ġisol": 6860,
      "ildern": 6861,
      "ĠKurz": 6862,
      "ims": 6863,
      "ibl": 6864,
      "ĠErstens": 6865,
      "Ġaccept": 6866,
      "Ġpoet": 6867,
      "ript": 6868,
      "Ġgeschah": 6869,
      "Ġ2008": 6870,
      "ĠauÃŁergewÃ¶hn": 6871,
      "ĠBedÃ¼rf": 6872,
      "Ġunterschiedliche": 6873,
      "ĠNahrungs": 6874,
      "ĠEigenschaften": 6875,
      "ĠverrÃ¼ckt": 6876,
      "It": 6877,
      "uhl": 6878,
      "Ġsenten": 6879,
      "stÃ¼tz": 6880,
      "ĠAuge": 6881,
      "Ġvict": 6882,
      "Ġbeant": 6883,
      "gefÃ¼hrt": 6884,
      "ufact": 6885,
      "bewer": 6886,
      "hlten": 6887,
      "aker": 6888,
      "Ġhelped": 6889,
      "Ġslide": 6890,
      "Ġdiseases": 6891,
      "ĠÃ¼b": 6892,
      "Ġengineering": 6893,
      "Ġelektr": 6894,
      "Ġslightly": 6895,
      "ding": 6896,
      "Ġtiss": 6897,
      "Ġsummer": 6898,
      "seh": 6899,
      "Ġmitt": 6900,
      "ĠCo": 6901,
      "Ġmale": 6902,
      "Ġrace": 6903,
      "Ġunderstood": 6904,
      "Ġsupply": 6905,
      "ĠKomplex": 6906,
      "Ġpressure": 6907,
      "Ġbehandeln": 6908,
      "Ġdramat": 6909,
      "reib": 6910,
      "Ġbud": 6911,
      "ĠAhnung": 6912,
      "ĠGang": 6913,
      "ologen": 6914,
      "ĠRu": 6915,
      "essed": 6916,
      "ĠJunge": 6917,
      "ĠJames": 6918,
      "Ġworst": 6919,
      "Ġatmosph": 6920,
      "hlung": 6921,
      "endes": 6922,
      "Ġtriff": 6923,
      "Ġtrouble": 6924,
      "Ġkomme": 6925,
      "rÃ¤ge": 6926,
      "ĠWerte": 6927,
      "Ġcapacity": 6928,
      "ĠDesigner": 6929,
      "Ġexistiert": 6930,
      "Ġunglaubliche": 6931,
      "ĠFinanz": 6932,
      "ĠMÃ¤nnern": 6933,
      "ĠSchÃ¶nheit": 6934,
      "Ġtarget": 6935,
      "Er": 6936,
      "ĠWass": 6937,
      "ĠGreat": 6938,
      "Ġunique": 6939,
      "ĠLife": 6940,
      "Ġgebe": 6941,
      "Ġcommer": 6942,
      "ĠArg": 6943,
      "lapp": 6944,
      "odell": 6945,
      "Ġartist": 6946,
      "Ġoriginal": 6947,
      "Ġkonzentrieren": 6948,
      "Ġwunderv": 6949,
      "\"-": 6950,
      "ners": 6951,
      "Ġdank": 6952,
      "Ġdrop": 6953,
      "Ġbase": 6954,
      "ĠSl": 6955,
      "unsch": 6956,
      "ĠTieren": 6957,
      "ĠBand": 6958,
      "Ġunver": 6959,
      "ĠRep": 6960,
      "Ġverbringen": 6961,
      "maÃŁ": 6962,
      "ĠMeeres": 6963,
      "Ġbelow": 6964,
      "Ġdirectly": 6965,
      "Ġtelevision": 6966,
      "How": 6967,
      "otel": 6968,
      "pre": 6969,
      "isierte": 6970,
      "ico": 6971,
      "deut": 6972,
      "Ġsobald": 6973,
      "ĠPost": 6974,
      "anne": 6975,
      "Ġimm": 6976,
      "ibr": 6977,
      "ĠÃ¼berleben": 6978,
      "Ġshared": 6979,
      "Ġvorbei": 6980,
      "ĠSport": 6981,
      "Ġprint": 6982,
      "Ġresist": 6983,
      "ĠMany": 6984,
      "ĠFrom": 6985,
      "treten": 6986,
      "Ġdestro": 6987,
      "ĠStÃ¤dten": 6988,
      "Ġsurvive": 6989,
      "Ġfemale": 6990,
      "Ġcolleagues": 6991,
      "ĠNÃ¤he": 6992,
      "Ġtens": 6993,
      "Ġhole": 6994,
      "ĠAlex": 6995,
      "ĠHum": 6996,
      "Ġwhose": 6997,
      "Ġnachhalt": 6998,
      "ĠManche": 6999,
      "Ġmostly": 7000,
      "Ġoffic": 7001,
      "Ġhinzu": 7002,
      "ĠIndustrie": 7003,
      "Ġpaid": 7004,
      "ĠSteve": 7005,
      "ĠSchlÃ¼ssel": 7006,
      "ĠÃ¶ffnen": 7007,
      "Ġcultural": 7008,
      "ĠFortschritt": 7009,
      "Ġlernte": 7010,
      "Ġtemperature": 7011,
      "Ġhom": 7012,
      "omant": 7013,
      "ĠTor": 7014,
      "ĠMill": 7015,
      "ĠMart": 7016,
      "Ġzug": 7017,
      "ichts": 7018,
      "ĠHom": 7019,
      "ĠFreunden": 7020,
      "Ġeffekt": 7021,
      "Ġcentral": 7022,
      "Ġtremend": 7023,
      "Ġprograms": 7024,
      "Ġpotent": 7025,
      "ĠfrÃ¼hen": 7026,
      "Ġ2010": 7027,
      "ĠiPh": 7028,
      "abe": 7029,
      "hes": 7030,
      "hner": 7031,
      "light": 7032,
      "oÃŁen": 7033,
      "vit": 7034,
      "Ġfangen": 7035,
      "Ġloss": 7036,
      "ĠMitt": 7037,
      "ĠunabhÃ¤ng": 7038,
      "Ġverme": 7039,
      "Ġstates": 7040,
      "ĠProjekte": 7041,
      "Ġentsp": 7042,
      "ĠYouT": 7043,
      "Ġagric": 7044,
      "spe": 7045,
      "ĠFreude": 7046,
      "Ġeigenes": 7047,
      "ĠWirtschafts": 7048,
      "Ġwunderbar": 7049,
      "Ġreligion": 7050,
      "Ġrelationships": 7051,
      "minister": 7052,
      "Ġsynth": 7053,
      "ĠIntelligen": 7054,
      "britannien": 7055,
      "Te": 7056,
      "pack": 7057,
      "raten": 7058,
      "Ġechte": 7059,
      "Ġinvent": 7060,
      "Ġhall": 7061,
      "ĠEtw": 7062,
      "geht": 7063,
      "Ġforces": 7064,
      "Ġgegangen": 7065,
      "Ġspreche": 7066,
      "ĠInsel": 7067,
      "Ġfrustr": 7068,
      "Ġmyster": 7069,
      "Ã¤rm": 7070,
      "Ġ194": 7071,
      "Ġprevent": 7072,
      "Ġboys": 7073,
      "folge": 7074,
      "ĠBiologie": 7075,
      "ĠAbend": 7076,
      "ĠPhysik": 7077,
      "ĠStatist": 7078,
      "Ġangefangen": 7079,
      "Ver": 7080,
      "lÃ¶s": 7081,
      "nam": 7082,
      "stadt": 7083,
      "ĠSam": 7084,
      "Ġlust": 7085,
      "ĠSchutz": 7086,
      "ĠSpitze": 7087,
      "itionen": 7088,
      "Ġmetap": 7089,
      "ĠAntworten": 7090,
      "ĠSchwar": 7091,
      "Ġpublished": 7092,
      "cules": 7093,
      "Ġcauses": 7094,
      "ĠMichael": 7095,
      "Ġpurpose": 7096,
      "ĠVerfÃ¼gung": 7097,
      "Ġinfrastructure": 7098,
      "Ġtrifft": 7099,
      "ĠYouTube": 7100,
      "kn": 7101,
      "val": 7102,
      "Ġ&": 7103,
      "Ġdouble": 7104,
      "Ġbat": 7105,
      "eting": 7106,
      "ĠBru": 7107,
      "ĠVideos": 7108,
      "Ġneh": 7109,
      "ikas": 7110,
      "izes": 7111,
      "Ġdifferences": 7112,
      "frika": 7113,
      "Ġfunny": 7114,
      "Ġcreativity": 7115,
      "Ġglobale": 7116,
      "Ġorganizations": 7117,
      "Ġmeters": 7118,
      "ĠhÃ¶rt": 7119,
      "ĠProdukte": 7120,
      "ĠursprÃ¼n": 7121,
      "Why": 7122,
      "ĠMaterialien": 7123,
      "ĠStreet": 7124,
      "ĠSommer": 7125,
      "ĠAgain": 7126,
      "Le": 7127,
      "bet": 7128,
      "Ġaid": 7129,
      "Ġbio": 7130,
      "itÃ¤r": 7131,
      "Ġvul": 7132,
      "irur": 7133,
      "ĠMÃ¶": 7134,
      "ĠPil": 7135,
      "Ġalgorith": 7136,
      "ĠJan": 7137,
      "Ġheav": 7138,
      "Ġnoticed": 7139,
      "ochter": 7140,
      "Ã¼sse": 7141,
      "Ġzeich": 7142,
      "Ġindustrial": 7143,
      "grÃ¼nd": 7144,
      "Ġanswers": 7145,
      "Ġexplore": 7146,
      "Ġprofound": 7147,
      "Ġcontroll": 7148,
      "haltung": 7149,
      "Ġjournal": 7150,
      "Ġkontrollieren": 7151,
      "Ġoxygen": 7152,
      "such": 7153,
      "Ġsick": 7154,
      "iest": 7155,
      "Ġkrie": 7156,
      "icles": 7157,
      "Ġmanip": 7158,
      "weil": 7159,
      "Ġchair": 7160,
      "ĠSchiff": 7161,
      "ĠGelegenheit": 7162,
      "ĠArme": 7163,
      "Ġentstehen": 7164,
      "Ġbegonnen": 7165,
      "ĠRegion": 7166,
      "affe": 7167,
      "ĠInteress": 7168,
      "Ġimprove": 7169,
      "ĠSauerstoff": 7170,
      "MS": 7171,
      "inct": 7172,
      "Ġsal": 7173,
      "Ġfro": 7174,
      "Ġve": 7175,
      "Ġeinsch": 7176,
      "ĠWaffen": 7177,
      "Ġkulture": 7178,
      "ĠTher": 7179,
      "Ġerzeugt": 7180,
      "ĠJournal": 7181,
      "Ġheat": 7182,
      "ĠInfrastruktur": 7183,
      "Ġherzustellen": 7184,
      "Ġseines": 7185,
      "ĠPlast": 7186,
      "Ġgeschafft": 7187,
      "ĠÃľberleben": 7188,
      "Ġriesigen": 7189,
      "ĠKapital": 7190,
      "Ġcloser": 7191,
      "ĠZustand": 7192,
      "pft": 7193,
      "erc": 7194,
      "orgung": 7195,
      "Ġfat": 7196,
      "urb": 7197,
      "ĠBein": 7198,
      "ĠBÃ¤ume": 7199,
      "ĠHis": 7200,
      "ĠSchrift": 7201,
      "Ġ23": 7202,
      "ĠTex": 7203,
      "wohn": 7204,
      "ĠNehmen": 7205,
      "ĠUnterstÃ¼tz": 7206,
      "ĠHerzen": 7207,
      "azine": 7208,
      "Ġtranspar": 7209,
      "ĠgrÃ¶ÃŁere": 7210,
      "ĠSchluss": 7211,
      "ographic": 7212,
      "ĠerwÃ¤h": 7213,
      "Ġspeaking": 7214,
      "fraid": 7215,
      "Ġnegative": 7216,
      "Ġcampaign": 7217,
      "ĠLeidenschaft": 7218,
      "Ġatmosphere": 7219,
      "zil": 7220,
      "Ġwider": 7221,
      "Ġmix": 7222,
      "ĠDort": 7223,
      "ichtbar": 7224,
      "Ġstim": 7225,
      "Ġerne": 7226,
      "ĠZelle": 7227,
      "Ġchines": 7228,
      "Ġentreprene": 7229,
      "Ġgenutzt": 7230,
      "oston": 7231,
      "istenz": 7232,
      "ĠAtlant": 7233,
      "ampag": 7234,
      "Ġstopped": 7235,
      "ĠKreis": 7236,
      "Ġbiological": 7237,
      "Ġmotor": 7238,
      "Ġinstitution": 7239,
      "Ġtwice": 7240,
      "Ġbeeinflusst": 7241,
      "ĠhÃ¤ufig": 7242,
      "Ġsurgery": 7243,
      "Ġafraid": 7244,
      "Ġsou": 7245,
      "Ġintens": 7246,
      "tech": 7247,
      "Ã¤umen": 7248,
      "verb": 7249,
      "Ġabsch": 7250,
      "Ġaufgenommen": 7251,
      "ennung": 7252,
      "Ġbrauchte": 7253,
      "ĠlieÃŁ": 7254,
      "Ġframe": 7255,
      "Ġplayed": 7256,
      "ĠgrÃ¶ÃŁeren": 7257,
      "ĠVerbindungen": 7258,
      "Ġstreets": 7259,
      "ĠFÃ¼hrungs": 7260,
      "ĠFarben": 7261,
      "Ġakzept": 7262,
      "uing": 7263,
      "Ġtax": 7264,
      "ĠWÃ¤": 7265,
      "elf": 7266,
      "ĠTochter": 7267,
      "Ġmanufact": 7268,
      "Ġspaces": 7269,
      "Ġworkers": 7270,
      "ĠUnterschiede": 7271,
      "Ġproduced": 7272,
      "ĠAtmosph": 7273,
      "Ġmarkets": 7274,
      "Ġschlimm": 7275,
      "Ġnetworks": 7276,
      "Ġcommunicate": 7277,
      "ĠIraq": 7278,
      "Ġevolved": 7279,
      "ĠverfÃ¼g": 7280,
      "ĠReligion": 7281,
      "ĠAmazon": 7282,
      "uber": 7283,
      "Ġ0": 7284,
      "Ġkor": 7285,
      "ĠTom": 7286,
      "ĠDienst": 7287,
      "rot": 7288,
      "berg": 7289,
      "Ġreagieren": 7290,
      "Ġunge": 7291,
      "ĠCon": 7292,
      "ĠColle": 7293,
      "ĠErzÃ¤": 7294,
      "ierenden": 7295,
      "Ġplat": 7296,
      "Ġactive": 7297,
      "lieben": 7298,
      "Ġgotten": 7299,
      "ĠAusdruck": 7300,
      "etzten": 7301,
      "Ġ600": 7302,
      "Ġbrilli": 7303,
      "Ġwichtigsten": 7304,
      "ception": 7305,
      "Ġcorner": 7306,
      "ĠGroÃŁbritannien": 7307,
      "Ġsustainable": 7308,
      "ĠKreativitÃ¤t": 7309,
      "fassen": 7310,
      "Ġbought": 7311,
      "Ġhus": 7312,
      "Ġgather": 7313,
      "Ġlack": 7314,
      "ĠkÃ¤mpfen": 7315,
      "Ġbezahl": 7316,
      "entwick": 7317,
      "ĠMos": 7318,
      "ĠMassen": 7319,
      "term": 7320,
      "Ġsogen": 7321,
      "ĠStan": 7322,
      "Ġshock": 7323,
      "ĠAltern": 7324,
      "wohner": 7325,
      "Ġsurround": 7326,
      "lav": 7327,
      "trag": 7328,
      "Ġhighly": 7329,
      "ĠFrÃ¼": 7330,
      "Ġpolitischen": 7331,
      "Ġassum": 7332,
      "ĠKnochen": 7333,
      "Ġprofession": 7334,
      "Ġerstaunlich": 7335,
      "ĠVielfalt": 7336,
      "ĠEntwicklungsl": 7337,
      "Ġmountain": 7338,
      "Ġapplic": 7339,
      "bin": 7340,
      "reibt": 7341,
      "ĠMicro": 7342,
      "ĠExt": 7343,
      "istry": 7344,
      "ibiot": 7345,
      "Ġsaf": 7346,
      "Ġconsequen": 7347,
      "Ġshoot": 7348,
      "ubble": 7349,
      "rench": 7350,
      "ĠfÃ¼hlt": 7351,
      "Ġspeech": 7352,
      "Ġbasis": 7353,
      "Ġfeels": 7354,
      "ergie": 7355,
      "ettbewer": 7356,
      "Ġmissing": 7357,
      "ĠDurchschnitt": 7358,
      "ĠJobs": 7359,
      "ĠermÃ¶glichen": 7360,
      "ĠTitel": 7361,
      "ĠÃ¶k": 7362,
      "ĠFenster": 7363,
      "do": 7364,
      "dy": 7365,
      "rect": 7366,
      "ĠSuche": 7367,
      "aling": 7368,
      "ĠWid": 7369,
      "urf": 7370,
      "ĠBoston": 7371,
      "imeter": 7372,
      "ĠLast": 7373,
      "ĠHig": 7374,
      "mente": 7375,
      "ĠOpfer": 7376,
      "ĠInstead": 7377,
      "Ġnotwend": 7378,
      "anging": 7379,
      "ktionen": 7380,
      "grÃ¶ÃŁ": 7381,
      "Ġsmell": 7382,
      "Ġweiterhin": 7383,
      "Ġexperiments": 7384,
      "Ġseemed": 7385,
      "Ġoppos": 7386,
      "Ġeasily": 7387,
      "ĠWerkzeuge": 7388,
      "Ġresponsibility": 7389,
      "Ġachieve": 7390,
      "ĠAngeles": 7391,
      "Ġcustom": 7392,
      "bank": 7393,
      "Ġdance": 7394,
      "Ġdying": 7395,
      "Ġvast": 7396,
      "ĠWunder": 7397,
      "eden": 7398,
      "Ġbein": 7399,
      "ĠGet": 7400,
      "ĠKore": 7401,
      "Ġverantwort": 7402,
      "ulations": 7403,
      "Ġentlang": 7404,
      "ĠGeschwindigkeit": 7405,
      "Ġendlich": 7406,
      "ĠThanks": 7407,
      "ĠKlasse": 7408,
      "Ġparad": 7409,
      "geschichte": 7410,
      "estens": 7411,
      "zeichnen": 7412,
      "Ġpsycholog": 7413,
      "ĠRÃ¼cken": 7414,
      "Ġmolecules": 7415,
      "ĠCenter": 7416,
      "Ġbeeinflussen": 7417,
      "ibe": 7418,
      "tr": 7419,
      "water": 7420,
      "Ġhielt": 7421,
      "ĠBon": 7422,
      "schte": 7423,
      "schuld": 7424,
      "heben": 7425,
      "ida": 7426,
      "artig": 7427,
      "odes": 7428,
      "aced": 7429,
      "ĠfÃ¼hle": 7430,
      "ĠSchlag": 7431,
      "ĠÃ¤uÃŁ": 7432,
      "frage": 7433,
      "brauch": 7434,
      "Ġsurprising": 7435,
      "col": 7436,
      "gas": 7437,
      "hause": 7438,
      "hilfe": 7439,
      "uert": 7440,
      "Ġbomb": 7441,
      "stes": 7442,
      "ĠnÃ¶t": 7443,
      "Ġkoll": 7444,
      "Ġkenne": 7445,
      "industrie": 7446,
      "istisch": 7447,
      "ĠAnst": 7448,
      "ĠAnsatz": 7449,
      "Ġeinfacher": 7450,
      "Ġdifferently": 7451,
      "Ġproduziert": 7452,
      "ĠPhÃ¤nomen": 7453,
      "Ġ[\"": 7454,
      "holt": 7455,
      "Ġelectr": 7456,
      "ĠParis": 7457,
      "ĠBrazil": 7458,
      "Ġdegrees": 7459,
      "ĠRisiko": 7460,
      "ĠGefÃ¼hle": 7461,
      "glie": 7462,
      "zif": 7463,
      "Ġeating": 7464,
      "Ġgilt": 7465,
      "leun": 7466,
      "Ġcoff": 7467,
      "Ġlangen": 7468,
      "Ġbemerk": 7469,
      "ĠGreen": 7470,
      "Ġseien": 7471,
      "indern": 7472,
      "ĠLang": 7473,
      "Ġrough": 7474,
      "ĠOsten": 7475,
      "ogel": 7476,
      "Ġknowing": 7477,
      "Ġtele": 7478,
      "Ġamb": 7479,
      "ĠEins": 7480,
      "Ġdorthin": 7481,
      "Ġcreates": 7482,
      "Ġhelping": 7483,
      "Ġplanets": 7484,
      "ĠKarriere": 7485,
      "Ġphoto": 7486,
      "ognitive": 7487,
      "Ġbirds": 7488,
      "Ġexperiences": 7489,
      "ĠKilometer": 7490,
      "imente": 7491,
      "gypt": 7492,
      "ĠWikip": 7493,
      "onym": 7494,
      "Ġod": 7495,
      "edy": 7496,
      "ĠMach": 7497,
      "ĠMore": 7498,
      "ĠMaterie": 7499,
      "ĠGanz": 7500,
      "Ġseas": 7501,
      "ĠPop": 7502,
      "ĠNorden": 7503,
      "lder": 7504,
      "ĠOver": 7505,
      "akten": 7506,
      "Ġdesigners": 7507,
      "Ġ2007": 7508,
      "Ġmagnet": 7509,
      "stÃ¤nde": 7510,
      "ribution": 7511,
      "ĠNichts": 7512,
      "load": 7513,
      "Ġreduce": 7514,
      "ĠGeschÃ¤fts": 7515,
      "Ġefficient": 7516,
      "Ġsignificant": 7517,
      "Ġseltsam": 7518,
      "Ge": 7519,
      "Wenn": 7520,
      "wahr": 7521,
      "Ġwire": 7522,
      "Ġut": 7523,
      "Ġnone": 7524,
      "ĠnÃ¼tz": 7525,
      "Ã¼st": 7526,
      "ĠWal": 7527,
      "entle": 7528,
      "schutz": 7529,
      "ĠLoch": 7530,
      "Ġschaut": 7531,
      "ulen": 7532,
      "abt": 7533,
      "Ġausz": 7534,
      "Ġauszu": 7535,
      "Ġ22": 7536,
      "Ġrapid": 7537,
      "haben": 7538,
      "ĠKlassen": 7539,
      "lieÃŁt": 7540,
      "mutlich": 7541,
      "Ġwindow": 7542,
      "ĠTemperatur": 7543,
      "Ġmembers": 7544,
      "ollywood": 7545,
      "Ġdiversity": 7546,
      "ĠiPhone": 7547,
      "Ġdaughter": 7548,
      "stag": 7549,
      "ĠSun": 7550,
      "Ġkrit": 7551,
      "used": 7552,
      "ĠKein": 7553,
      "ĠSpr": 7554,
      "ungspro": 7555,
      "Ġhandeln": 7556,
      "Ġelement": 7557,
      "ratic": 7558,
      "Ġswitch": 7559,
      "Ġerlauben": 7560,
      "Ġstellten": 7561,
      "Ġnehme": 7562,
      "gin": 7563,
      "hÃ¶": 7564,
      "kop": 7565,
      "mmer": 7566,
      "uum": 7567,
      "Ġiniti": 7568,
      "Ã¼ben": 7569,
      "ĠKing": 7570,
      "ĠHolz": 7571,
      "Ġtrick": 7572,
      "ĠTodes": 7573,
      "fÃ¤lle": 7574,
      "Ġcommunication": 7575,
      "Ġsatell": 7576,
      "kle": 7577,
      "setzt": 7578,
      "ĠkÃ¼rz": 7579,
      "rauch": 7580,
      "Ġnearly": 7581,
      "Ġentsteht": 7582,
      "izient": 7583,
      "Ġbringing": 7584,
      "gebaut": 7585,
      "ĠBlog": 7586,
      "ekten": 7587,
      "Ġerstellen": 7588,
      "Ã¤nderte": 7589,
      "Ġperfekt": 7590,
      "Ġcomplexity": 7591,
      "ĠBegriff": 7592,
      "markt": 7593,
      "ĠKommunikation": 7594,
      "ĠSchlaf": 7595,
      "ĠSoldaten": 7596,
      "Un": 7597,
      "dr": 7598,
      "izen": 7599,
      "ĠÃ¤ndert": 7600,
      "Ġgaben": 7601,
      "Ġfle": 7602,
      "Ġflex": 7603,
      "Ġkostet": 7604,
      "ĠKÃ¤": 7605,
      "ĠLat": 7606,
      "ĠNerven": 7607,
      "ationale": 7608,
      "ĠJer": 7609,
      "antas": 7610,
      "rupt": 7611,
      "Ġgene": 7612,
      "Ġgenome": 7613,
      "Ġteen": 7614,
      "ording": 7615,
      "ĠGesellschaften": 7616,
      "Ġflight": 7617,
      "Ġprep": 7618,
      "bruch": 7619,
      "gramme": 7620,
      "Ġpolitische": 7621,
      "Ġscientist": 7622,
      "ĠBeruf": 7623,
      "Ġbroken": 7624,
      "mÃ¶gen": 7625,
      "Ġspending": 7626,
      "ĠZusammenhang": 7627,
      "mmern": 7628,
      "ĠNeuronen": 7629,
      "Ġbehandelt": 7630,
      "ĠBotschaft": 7631,
      "ĠWikipedia": 7632,
      "hung": 7633,
      "chem": 7634,
      "Ġtom": 7635,
      "Ġverein": 7636,
      "ĠPre": 7637,
      "cell": 7638,
      "Ġentschied": 7639,
      "izitÃ¤t": 7640,
      "Ġdarf": 7641,
      "Ġagree": 7642,
      "Ġganzes": 7643,
      "ĠGlas": 7644,
      "Ġvisit": 7645,
      "Ġanaly": 7646,
      "ĠResult": 7647,
      "ĠVirus": 7648,
      "ĠPrÃ¤sident": 7649,
      "house": 7650,
      "ober": 7651,
      "Ġbuchst": 7652,
      "omas": 7653,
      "eler": 7654,
      "erecht": 7655,
      "Ġdemand": 7656,
      "Ġdagegen": 7657,
      "ĠEinsatz": 7658,
      "ĠbloÃŁ": 7659,
      "Ġstudying": 7660,
      "Ġlights": 7661,
      "Ġengage": 7662,
      "umente": 7663,
      "Ġconference": 7664,
      "Ġconsciousness": 7665,
      "ĠAmeisen": 7666,
      "Ġcommercial": 7667,
      "500": 7668,
      "bu": 7669,
      "right": 7670,
      "Ġafr": 7671,
      "orb": 7672,
      "ĠWol": 7673,
      "ĠkÃ¼nst": 7674,
      "urop": 7675,
      "Ġweird": 7676,
      "ĠKop": 7677,
      "olden": 7678,
      "ĠjÃ¼n": 7679,
      "Ġlegen": 7680,
      "Ġleiden": 7681,
      "Ġsport": 7682,
      "Ġrare": 7683,
      "rian": 7684,
      "Ġemail": 7685,
      "laden": 7686,
      "Ġaddition": 7687,
      "ĠOnline": 7688,
      "Ġhearing": 7689,
      "Ġverkauft": 7690,
      "Ġdevices": 7691,
      "Ġ1990": 7692,
      "ĠerhÃ¤lt": 7693,
      "Ġvari": 7694,
      "ĠTypen": 7695,
      "ĠWahrscheinlichkeit": 7696,
      "ĠGPS": 7697,
      "ĠCollege": 7698,
      "det": 7699,
      "oom": 7700,
      "Ġbatter": 7701,
      "arr": 7702,
      "ĠSatz": 7703,
      "Ġpig": 7704,
      "ĠGood": 7705,
      "ieso": 7706,
      "pping": 7707,
      "angt": 7708,
      "Ġenter": 7709,
      "aining": 7710,
      "Ġgross": 7711,
      "Ã¤nglich": 7712,
      "Ġbetrifft": 7713,
      "riffen": 7714,
      "ĠVersion": 7715,
      "Ġbreast": 7716,
      "ĠKohlen": 7717,
      "Ġextreme": 7718,
      "ĠBedingungen": 7719,
      "Ġopportunities": 7720,
      "ĠKorallen": 7721,
      "ĠWerkzeug": 7722,
      "ĠInsekten": 7723,
      "Ġtremendous": 7724,
      "Ġbemerkens": 7725,
      "60": 7726,
      "brechen": 7727,
      "Ġdom": 7728,
      "Ġeg": 7729,
      "ĠWunsch": 7730,
      "Ġbees": 7731,
      "ĠBG": 7732,
      "andid": 7733,
      "weite": 7734,
      "ĠsaÃŁ": 7735,
      "Ġpresen": 7736,
      "ĠStein": 7737,
      "Ġboat": 7738,
      "ĠDeut": 7739,
      "Ġfocused": 7740,
      "Ġjoin": 7741,
      "ĠSterne": 7742,
      "erspektive": 7743,
      "Ġbegeist": 7744,
      "Ġlandscape": 7745,
      "ĠDiskuss": 7746,
      "ĠMiddle": 7747,
      "Ġerforschen": 7748,
      "ĠKomplexitÃ¤t": 7749,
      "Ġvulner": 7750,
      "kung": 7751,
      "ĠSzen": 7752,
      "ĠLes": 7753,
      "opt": 7754,
      "beweg": 7755,
      "ĠSozial": 7756,
      "ĠkÃ¶nnt": 7757,
      "Ġdavor": 7758,
      "ĠProz": 7759,
      "Ġinterpret": 7760,
      "Ġalleine": 7761,
      "olds": 7762,
      "Ġweiteres": 7763,
      "Ġecosystem": 7764,
      "quenz": 7765,
      "ĠKarten": 7766,
      "ĠKontakt": 7767,
      "Ġforever": 7768,
      "ĠProfessor": 7769,
      "ĠZentrum": 7770,
      "Ġverursacht": 7771,
      "Ġtherap": 7772,
      "ĠGlobal": 7773,
      "ĠIntelligenz": 7774,
      "ias": 7775,
      "pted": 7776,
      "pfl": 7777,
      "entlicht": 7778,
      "seits": 7779,
      "Ġrede": 7780,
      "ĠFeld": 7781,
      "Ġaufw": 7782,
      "ĠZur": 7783,
      "artige": 7784,
      "formen": 7785,
      "ĠQualitÃ¤t": 7786,
      "Ġinvestieren": 7787,
      "Ġfully": 7788,
      "Ġmission": 7789,
      "bedingt": 7790,
      "zubauen": 7791,
      "ĠKlima": 7792,
      "ĠbenÃ¶tigen": 7793,
      "alifornien": 7794,
      "Ġfairly": 7795,
      "ĠNiemand": 7796,
      "ĠActually": 7797,
      "Ġletztes": 7798,
      "ĠKlimawandel": 7799,
      "ĠAtmosphÃ¤re": 7800,
      "dimensional": 7801,
      "na": 7802,
      "orgt": 7803,
      "ĠAh": 7804,
      "Ġhabt": 7805,
      "ĠKunden": 7806,
      "ĠLab": 7807,
      "ays": 7808,
      "uments": 7809,
      "ĠJede": 7810,
      "ĠZiele": 7811,
      "ĠÃ¼berzeugt": 7812,
      "angs": 7813,
      "Ġ27": 7814,
      "icket": 7815,
      "Ġgewonnen": 7816,
      "Ġbeschreiben": 7817,
      "Ġbedeut": 7818,
      "Ġimagination": 7819,
      "stronom": 7820,
      "ĠGemeinde": 7821,
      "Ġsexual": 7822,
      "ĠAufgaben": 7823,
      "ĠBabys": 7824,
      "klÃ¤rung": 7825,
      "ĠUnterstÃ¼tzung": 7826,
      "mel": 7827,
      "mission": 7828,
      "Ġ,": 7829,
      "inde": 7830,
      "Ġsan": 7831,
      "asche": 7832,
      "Ġep": 7833,
      "isierten": 7834,
      "ĠTrad": 7835,
      "auschen": 7836,
      "fÃ¼hrung": 7837,
      "Ġpassed": 7838,
      "Ġbitten": 7839,
      "Ġentwickelten": 7840,
      "Ġidentity": 7841,
      "Ġsowie": 7842,
      "ĠSekunde": 7843,
      "ĠFernsehen": 7844,
      "ivalent": 7845,
      "Ġkommunizieren": 7846,
      "Okay": 7847,
      "bie": 7848,
      "die": 7849,
      "Ġta": 7850,
      "ĠsÃ¼": 7851,
      "Ġbread": 7852,
      "lecht": 7853,
      "igur": 7854,
      "Ã¤be": 7855,
      "emen": 7856,
      "Ġadapt": 7857,
      "Ġverbreitet": 7858,
      "Ġ2005": 7859,
      "Ġklingt": 7860,
      "ĠUniversums": 7861,
      "Ġphysic": 7862,
      "Ġcooper": 7863,
      "Ġ250": 7864,
      "zeichen": 7865,
      "ĠZusammenarbeit": 7866,
      "Ġsymmet": 7867,
      "Ġ1960": 7868,
      "ĠverÃ¶ffentlicht": 7869,
      "Ġancient": 7870,
      "fallen": 7871,
      "reci": 7872,
      "ĠAbst": 7873,
      "Ġzent": 7874,
      "etwas": 7875,
      "ĠMat": 7876,
      "ĠGolf": 7877,
      "ĠUN": 7878,
      "ĠKÃ¶": 7879,
      "Ġschafft": 7880,
      "Ġleider": 7881,
      "urcht": 7882,
      "Ġstem": 7883,
      "Ġdisk": 7884,
      "Ġartists": 7885,
      "ippe": 7886,
      "ĠZweitens": 7887,
      "ĠRobert": 7888,
      "ĠÃĸkosystem": 7889,
      "ĠMÃ¼ll": 7890,
      "Sie": 7891,
      "Ġwis": 7892,
      "ĠAir": 7893,
      "utt": 7894,
      "usive": 7895,
      "ĠTanz": 7896,
      "Ġyellow": 7897,
      "ĠFest": 7898,
      "ĠPot": 7899,
      "lymp": 7900,
      "istische": 7901,
      "ĠCE": 7902,
      "Ġaspect": 7903,
      "ĠInform": 7904,
      "Ġumgehen": 7905,
      "ugier": 7906,
      "Ġsteigen": 7907,
      "Ã¤nn": 7908,
      "Ġtrag": 7909,
      "teln": 7910,
      "ĠUntersuch": 7911,
      "Ġcreatures": 7912,
      "wirken": 7913,
      "Ġinspired": 7914,
      "Ġpleas": 7915,
      "ĠInstitute": 7916,
      "Ġphenomenon": 7917,
      "Ġlucky": 7918,
      "ĠLieblings": 7919,
      "Ġopposite": 7920,
      "based": 7921,
      "cles": 7922,
      "Ġeure": 7923,
      "igend": 7924,
      "ĠWandel": 7925,
      "Ġhau": 7926,
      "ĠGar": 7927,
      "Ġunbedingt": 7928,
      "Ġstreng": 7929,
      "Ġneuer": 7930,
      "ĠÃ¼berzeugen": 7931,
      "Ġdesert": 7932,
      "Ġgros": 7933,
      "Ġparty": 7934,
      "ĠAusbildung": 7935,
      "Ġrecover": 7936,
      "ograp": 7937,
      "Ġpossibility": 7938,
      "ĠSchwier": 7939,
      "Ġcheap": 7940,
      "Ġavoid": 7941,
      "Ġreligious": 7942,
      "Ġfarmers": 7943,
      "zwischen": 7944,
      "ĠJugend": 7945,
      "krieg": 7946,
      "Ġalternative": 7947,
      "Ġdespite": 7948,
      "ĠHiggs": 7949,
      "ĠbuchstÃ¤": 7950,
      "far": 7951,
      "person": 7952,
      "za": 7953,
      "Ġmort": 7954,
      "anst": 7955,
      "stud": 7956,
      "Ġnutz": 7957,
      "Ġcore": 7958,
      "ĠTun": 7959,
      "Ġvermutlich": 7960,
      "ĠSchmerz": 7961,
      "Ġhero": 7962,
      "Ã¤tsel": 7963,
      "Ġnote": 7964,
      "ungssystem": 7965,
      "Ġdisor": 7966,
      "Ġturning": 7967,
      "Ġsignal": 7968,
      "ography": 7969,
      "ĠZeichen": 7970,
      "ĠOrganisationen": 7971,
      "krebs": 7972,
      "Ġfailure": 7973,
      "ĠFÃ¤llen": 7974,
      "Ġlautet": 7975,
      "ĠwunderschÃ¶n": 7976,
      "king": 7977,
      "sa": 7978,
      "Ġhost": 7979,
      "Ġgentle": 7980,
      "unte": 7981,
      "ĠTake": 7982,
      "Ġrechten": 7983,
      "ĠFach": 7984,
      "ĠerfÃ¼": 7985,
      "antage": 7986,
      "ĠStÃ¤r": 7987,
      "halte": 7988,
      "print": 7989,
      "ĠHeil": 7990,
      "spra": 7991,
      "Ġsimpl": 7992,
      "Ġherausgefunden": 7993,
      "Ġ2009": 7994,
      "Ġaccident": 7995,
      "Ġfash": 7996,
      "Ġeasier": 7997,
      "losen": 7998,
      "Ġdescribe": 7999,
      "ĠHintergrund": 8000,
      "bi": 8001,
      "Ġmouth": 8002,
      "Ġgiant": 8003,
      "Ġtolle": 8004,
      "Ã¼gel": 8005,
      "igr": 8006,
      "ety": 8007,
      "Ġrepe": 8008,
      "ĠPers": 8009,
      "ĠPri": 8010,
      "Ã¼ren": 8011,
      "ĠZusch": 8012,
      "Ġdieselbe": 8013,
      "Ġspiel": 8014,
      "Ġnotion": 8015,
      "ĠSche": 8016,
      "Ġsharing": 8017,
      "Ġprior": 8018,
      "ĠdurchgefÃ¼hrt": 8019,
      "frist": 8020,
      "spro": 8021,
      "Ġwiederum": 8022,
      "hÃ¶rt": 8023,
      "Ġparticles": 8024,
      "Ġdreams": 8025,
      "stÃ¤ndlich": 8026,
      "Ġvollkommen": 8027,
      "ĠauÃŁerdem": 8028,
      "ĠGroÃŁteil": 8029,
      "Ġevents": 8030,
      "Ġfigured": 8031,
      "ĠHerausforderungen": 8032,
      "ĠBritish": 8033,
      "Ġsorry": 8034,
      "ĠIdentitÃ¤t": 8035,
      "ĠPlastik": 8036,
      "cel": 8037,
      "iop": 8038,
      "know": 8039,
      "uden": 8040,
      "chnen": 8041,
      "Ġepidem": 8042,
      "Ġgun": 8043,
      "Ã¼hrt": 8044,
      "Ġess": 8045,
      "ĠThomas": 8046,
      "ĠÃ¼bertragen": 8047,
      "Ġship": 8048,
      "ĠSpielen": 8049,
      "ĠEinfach": 8050,
      "Ġpartners": 8051,
      "fÃ¼hrer": 8052,
      "Ġraised": 8053,
      "Ġimportantly": 8054,
      "ification": 8055,
      "Ġstructures": 8056,
      "ĠAdam": 8057,
      "Ġunterschiedlichen": 8058,
      "impan": 8059,
      "Ġmoments": 8060,
      "ĠbeschÃ¤ftigt": 8061,
      "zweif": 8062,
      "car": 8063,
      "ruf": 8064,
      "inc": 8065,
      "asion": 8066,
      "ĠDrei": 8067,
      "otograf": 8068,
      "ĠPo": 8069,
      "ĠLaden": 8070,
      "ĠgefÃ¼hrt": 8071,
      "obel": 8072,
      "ĠGrÃ¼nden": 8073,
      "ĠGesetze": 8074,
      "ĠLandwirtschaft": 8075,
      "Ġdrehen": 8076,
      "Ġnames": 8077,
      "ĠObjekte": 8078,
      "Ġfragten": 8079,
      "Ġverdienen": 8080,
      "Ġentirely": 8081,
      "oppelt": 8082,
      "Ġforeign": 8083,
      "Ġbenefits": 8084,
      "elesc": 8085,
      "Ġdeutlich": 8086,
      "Don": 8087,
      "volle": 8088,
      "Ġwood": 8089,
      "Ġsorgen": 8090,
      "Ġmill": 8091,
      "iche": 8092,
      "usagen": 8093,
      "ĠMasse": 8094,
      "ĠBal": 8095,
      "ĠGest": 8096,
      "kehren": 8097,
      "ĠLiter": 8098,
      "anner": 8099,
      "Ġrational": 8100,
      "ĠVogel": 8101,
      "Ġspot": 8102,
      "ĠStatt": 8103,
      "ĠSchimpan": 8104,
      "Ġusw": 8105,
      "ĠAnges": 8106,
      "Ġstecken": 8107,
      "rennen": 8108,
      "Ġselber": 8109,
      "Ġbesitzen": 8110,
      "Ġheld": 8111,
      "Ġsicherlich": 8112,
      "ĠProblemen": 8113,
      "Ġgestalten": 8114,
      "Ġsitzt": 8115,
      "ĠForscher": 8116,
      "Ġdefinition": 8117,
      "ĠScience": 8118,
      "Ġ1980": 8119,
      "Ġorigin": 8120,
      "This": 8121,
      "Ġancest": 8122,
      "ĠerklÃ¤rt": 8123,
      "aos": 8124,
      "fÃ¤higkeit": 8125,
      "oe": 8126,
      "Ġsinn": 8127,
      "stab": 8128,
      "itzt": 8129,
      "Ġfell": 8130,
      "ĠSorgen": 8131,
      "Ġbezahlen": 8132,
      "ĠMobil": 8133,
      "ĠBio": 8134,
      "Ġwirst": 8135,
      "ota": 8136,
      "ĠFabr": 8137,
      "Ġabzu": 8138,
      "Ġrecy": 8139,
      "ĠZuerst": 8140,
      "ĠHowever": 8141,
      "Ġregular": 8142,
      "ĠAsia": 8143,
      "Ġcoast": 8144,
      "Ġdigit": 8145,
      "ĠKeine": 8146,
      "ĠbenÃ¶tigt": 8147,
      "ĠBasis": 8148,
      "abetes": 8149,
      "Ġcoffee": 8150,
      "Ġhaupts": 8151,
      "ĠbuchstÃ¤blich": 8152,
      "di": 8153,
      "fÃ¤lt": 8154,
      "vity": 8155,
      "Ġdur": 8156,
      "Ġmamm": 8157,
      "Ġcry": 8158,
      "Ġpuzz": 8159,
      "Ġkrank": 8160,
      "etten": 8161,
      "Ġzuk": 8162,
      "ĠFund": 8163,
      "ĠFrench": 8164,
      "ĠNutzen": 8165,
      "Ġjung": 8166,
      "ĠVÃ¶": 8167,
      "osis": 8168,
      "ĠStoff": 8169,
      "Ġexerc": 8170,
      "ĠBeine": 8171,
      "Ġentspr": 8172,
      "ĠSpiele": 8173,
      "Ġcalls": 8174,
      "Ġpoem": 8175,
      "istence": 8176,
      "Ġbrings": 8177,
      "Ġelements": 8178,
      "Ġerstes": 8179,
      "ĠHandy": 8180,
      "Ġerwartet": 8181,
      "richtung": 8182,
      "ĠGewicht": 8183,
      "zusehen": 8184,
      "Ġeingesch": 8185,
      "worfen": 8186,
      "ĠModelle": 8187,
      "Ġsuffering": 8188,
      "Ġnecessarily": 8189,
      "ĠzufÃ¤llig": 8190,
      "ĠVertrauen": 8191,
      "Ġmetaphor": 8192,
      "krank": 8193,
      "oge": 8194,
      "aters": 8195,
      "Ġbillions": 8196,
      "isible": 8197,
      "Ã¶tet": 8198,
      "cting": 8199,
      "ĠValley": 8200,
      "wechsel": 8201,
      "ibel": 8202,
      "Ġvorh": 8203,
      "ipe": 8204,
      "ĠSehr": 8205,
      "Ġcontact": 8206,
      "Ġgelangen": 8207,
      "Ġsozusagen": 8208,
      "Ġcharge": 8209,
      "ĠschÃ¶ne": 8210,
      "ĠEuropean": 8211,
      "Ġrequire": 8212,
      "ĠTreib": 8213,
      "ĠMexico": 8214,
      "ĠnatÃ¼rliche": 8215,
      "ĠJanu": 8216,
      "Ġbrilliant": 8217,
      "Ġfashion": 8218,
      "PA": 8219,
      "oz": 8220,
      "Ġshr": 8221,
      "ĠAffen": 8222,
      "ros": 8223,
      "tert": 8224,
      "ĠFÃ¼n": 8225,
      "ĠCam": 8226,
      "Ġattem": 8227,
      "pper": 8228,
      "artment": 8229,
      "ending": 8230,
      "Ġconcent": 8231,
      "Ġquote": 8232,
      "Ġproud": 8233,
      "hnten": 8234,
      "Ã¤hrung": 8235,
      "ords": 8236,
      "Ġindic": 8237,
      "ĠKontext": 8238,
      "gewicht": 8239,
      "Ġanderem": 8240,
      "Ġaccur": 8241,
      "ĠObama": 8242,
      "Ġresponsible": 8243,
      "Ġvirtual": 8244,
      "ĠkÃ¼mmern": 8245,
      "setzung": 8246,
      "wissenschaft": 8247,
      "ĠSometimes": 8248,
      "Ġillegal": 8249,
      "ĠdÃ¼rfen": 8250,
      "Du": 8251,
      "eine": 8252,
      "laufen": 8253,
      "zelle": 8254,
      "Ġtough": 8255,
      "ĠSein": 8256,
      "Ġlaugh": 8257,
      "ĠFalls": 8258,
      "ĠHack": 8259,
      "cked": 8260,
      "Ġforg": 8261,
      "ĠRede": 8262,
      "ausch": 8263,
      "Ġwerfen": 8264,
      "Ġgrass": 8265,
      "Ġbackground": 8266,
      "Ġwohin": 8267,
      "Ġbestimmen": 8268,
      "Ġappreci": 8269,
      "Ġremote": 8270,
      "ĠBildschirm": 8271,
      "Ġbridge": 8272,
      "Ġmindestens": 8273,
      "Ġdreht": 8274,
      "Ġdistance": 8275,
      "Ġhohen": 8276,
      "ĠGraf": 8277,
      "ĠreprÃ¤sent": 8278,
      "Ġleadership": 8279,
      "Ġwissenschaftliche": 8280,
      "Ġmodernen": 8281,
      "Ġcompetition": 8282,
      "ĠzukÃ¼nft": 8283,
      "mother": 8284,
      "Ġbound": 8285,
      "itely": 8286,
      "Ġpounds": 8287,
      "Ġtox": 8288,
      "ĠlÃ¤ch": 8289,
      "ĠBoot": 8290,
      "Ġderzeit": 8291,
      "ola": 8292,
      "idden": 8293,
      "Ġabgesch": 8294,
      "Ġleid": 8295,
      "Ġcompl": 8296,
      "Ġplus": 8297,
      "Ã¶rdern": 8298,
      "Ġsculpt": 8299,
      "ĠChild": 8300,
      "ĠgewÃ¶hn": 8301,
      "Ġprevious": 8302,
      "lafen": 8303,
      "Ġiron": 8304,
      "Ġhelps": 8305,
      "Ġopened": 8306,
      "Ġphotos": 8307,
      "ĠÃ¶ffentlich": 8308,
      "ĠMilliarde": 8309,
      "Ġcondu": 8310,
      "ĠStaat": 8311,
      "ĠBrot": 8312,
      "Ġphilosop": 8313,
      "ĠDrittel": 8314,
      "Ġrelevant": 8315,
      "Ġtissue": 8316,
      "gern": 8317,
      "van": 8318,
      "inhalb": 8319,
      "Ġhung": 8320,
      "ĠhÃ¤ngt": 8321,
      "ĠWÃ¼": 8322,
      "Ġbeteil": 8323,
      "ĠKalifornien": 8324,
      "ĠLink": 8325,
      "sens": 8326,
      "ĠVision": 8327,
      "agers": 8328,
      "ulated": 8329,
      "Ġausgest": 8330,
      "Ġentwerfen": 8331,
      "ĠVerk": 8332,
      "ĠVery": 8333,
      "Ġsteckt": 8334,
      "renz": 8335,
      "Ġcla": 8336,
      "spir": 8337,
      "ĠKindheit": 8338,
      "Ġideal": 8339,
      "Ġstudied": 8340,
      "ocken": 8341,
      "ĠKonferenz": 8342,
      "Ġcorpor": 8343,
      "Ġerinnert": 8344,
      "Ġanti": 8345,
      "Ġleading": 8346,
      "Ġedge": 8347,
      "ĠSatell": 8348,
      "Ġnecessary": 8349,
      "ĠtÃ¤glich": 8350,
      "Ġweapons": 8351,
      "ĠGhana": 8352,
      "path": 8353,
      "xis": 8354,
      "Ġtausende": 8355,
      "ĠwÃ¤chst": 8356,
      "Ġmaster": 8357,
      "Ġbird": 8358,
      "Ġpet": 8359,
      "ĠAss": 8360,
      "ĠWichtig": 8361,
      "Ġseed": 8362,
      "ĠFische": 8363,
      "Ġstolz": 8364,
      "idents": 8365,
      "ĠRem": 8366,
      "ulous": 8367,
      "ibilities": 8368,
      "Ġausl": 8369,
      "apie": 8370,
      "ifically": 8371,
      "werte": 8372,
      "Ġlieber": 8373,
      "Ġverwir": 8374,
      "Ġ65": 8375,
      "Ġclever": 8376,
      "ĠKontin": 8377,
      "Ġidentif": 8378,
      "Ġoceans": 8379,
      "Ġholding": 8380,
      "ĠIrak": 8381,
      "Ġdocument": 8382,
      "Ġcounter": 8383,
      "ĠInstitutionen": 8384,
      ".'": 8385,
      "An": 8386,
      "len": 8387,
      "Ġast": 8388,
      "Ġdou": 8389,
      "ĠAch": 8390,
      "ĠTur": 8391,
      "etter": 8392,
      "ĠBur": 8393,
      "Ġsector": 8394,
      "Ġallgemein": 8395,
      "istischen": 8396,
      "ĠInst": 8397,
      "ĠdaÃŁ": 8398,
      "Ġhinweg": 8399,
      "hafte": 8400,
      "Ġhalb": 8401,
      "Ġshouldn": 8402,
      "Ġrelated": 8403,
      "Ġbelieved": 8404,
      "Ġgebra": 8405,
      "ĠLebensmittel": 8406,
      "bling": 8407,
      "Ã¶ffnet": 8408,
      "Ġmatters": 8409,
      "Ġfalsche": 8410,
      "Ġirgendwann": 8411,
      "ĠÃ¶ffentliche": 8412,
      "Ġbroad": 8413,
      "ĠThemen": 8414,
      "forschung": 8415,
      "Ġultimately": 8416,
      "Ġverwandeln": 8417,
      "Ġseparate": 8418,
      "Ġbalance": 8419,
      "Ġintellect": 8420,
      "ĠÃĸffentlich": 8421,
      "ĠPolizei": 8422,
      "Ġhusband": 8423,
      "eared": 8424,
      "fisch": 8425,
      "squ": 8426,
      "sagen": 8427,
      "Ġweder": 8428,
      "atively": 8429,
      "ĠAc": 8430,
      "rale": 8431,
      "ĠEing": 8432,
      "ĠEgypt": 8433,
      "ĠKann": 8434,
      "Ġunfortunately": 8435,
      "ĠHil": 8436,
      "ĠHerst": 8437,
      "Ġstuck": 8438,
      "ĠOx": 8439,
      "zeiten": 8440,
      "onds": 8441,
      "Ġinteragieren": 8442,
      "Ġfaith": 8443,
      "Ġfailed": 8444,
      "Ġversus": 8445,
      "ĠMechan": 8446,
      "Ġglaubt": 8447,
      "Ġdollar": 8448,
      "soft": 8449,
      "ometers": 8450,
      "Ġreligi": 8451,
      "Ġadults": 8452,
      "ĠLeistung": 8453,
      "Ġverfolgen": 8454,
      "Ġdestroy": 8455,
      "Ġtesten": 8456,
      "ĠII": 8457,
      "ĠBildern": 8458,
      "ĠHaw": 8459,
      "Ġromant": 8460,
      "ession": 8461,
      "Ġaussch": 8462,
      "iens": 8463,
      "ĠSchne": 8464,
      "Ġtruck": 8465,
      "ĠgetÃ¶tet": 8466,
      "ĠGefahr": 8467,
      "ifen": 8468,
      "Ġoffer": 8469,
      "ighten": 8470,
      "Ġchildhood": 8471,
      "Ġweiteren": 8472,
      "Ġcorrect": 8473,
      "esentlichen": 8474,
      "ĠStress": 8475,
      "Ġcolors": 8476,
      "ancing": 8477,
      "Ġsucceed": 8478,
      "ĠEmot": 8479,
      "Ġeinsetzen": 8480,
      "Ġleads": 8481,
      "ĠCharakter": 8482,
      "jÃ¤hrigen": 8483,
      "Ġconvin": 8484,
      "ĠÃ¼berrascht": 8485,
      "care": 8486,
      "wahl": 8487,
      "enkt": 8488,
      "Ġwand": 8489,
      "Ġmor": 8490,
      "asten": 8491,
      "Ġban": 8492,
      "ĠSen": 8493,
      "ĠAkt": 8494,
      "ĠDH": 8495,
      "ĠDra": 8496,
      "ĠMad": 8497,
      "Ġweiss": 8498,
      "icted": 8499,
      "ĠBett": 8500,
      "ĠLad": 8501,
      "ĠLog": 8502,
      "Ġriver": 8503,
      "ffekt": 8504,
      "ĠJack": 8505,
      "ausenden": 8506,
      "ĠCr": 8507,
      "kton": 8508,
      "itete": 8509,
      "ĠVerkehr": 8510,
      "Ġ1950": 8511,
      "Ġcontra": 8512,
      "Ġfragt": 8513,
      "ĠIsland": 8514,
      "ĠHaiti": 8515,
      "Ġinvestment": 8516,
      "tended": 8517,
      "ĠStrukturen": 8518,
      "ĠVerlust": 8519,
      "ĠtÃ¶ten": 8520,
      "Ġkompliz": 8521,
      "gesehen": 8522,
      "yram": 8523,
      "Ġter": 8524,
      "chern": 8525,
      "atoren": 8526,
      "Ġmouse": 8527,
      "Ġlat": 8528,
      "ĠMod": 8529,
      "ĠEcke": 8530,
      "ckten": 8531,
      "ĠJungs": 8532,
      "ĠOff": 8533,
      "iban": 8534,
      "ĠÃĦnder": 8535,
      "ĠGerÃ¤te": 8536,
      "ĠOnce": 8537,
      "itzer": 8538,
      "ĠGegenteil": 8539,
      "Ġprofessional": 8540,
      "Ġprototyp": 8541,
      "Ġconcerned": 8542,
      "Ġinsects": 8543,
      "ĠAuÃŁerdem": 8544,
      "Ġplatform": 8545,
      "ĠMicrosoft": 8546,
      "ĠhauptsÃ¤chlich": 8547,
      "bas": 8548,
      "ded": 8549,
      "jekten": 8550,
      "ses": 8551,
      "vin": 8552,
      "Ġpun": 8553,
      "Ġlies": 8554,
      "ĠDid": 8555,
      "ĠDinosaur": 8556,
      "Ġanges": 8557,
      "ĠLar": 8558,
      "Ġjoy": 8559,
      "wegs": 8560,
      "ĠInn": 8561,
      "Ġhate": 8562,
      "izien": 8563,
      "Ġcloud": 8564,
      "Ġnoise": 8565,
      "Ġresol": 8566,
      "issions": 8567,
      "Ġhalte": 8568,
      "Ġpair": 8569,
      "prob": 8570,
      "Ġletztendlich": 8571,
      "Ġauth": 8572,
      "schlÃ¤": 8573,
      "ĠvollstÃ¤ndig": 8574,
      "ĠZeich": 8575,
      "Ġleaving": 8576,
      "Ġdiscovery": 8577,
      "Ġscheinen": 8578,
      "ĠGeneral": 8579,
      "esterday": 8580,
      "ĠApple": 8581,
      "Ġuniversity": 8582,
      "ĠGalaxien": 8583,
      "ĠHeimat": 8584,
      "Ar": 8585,
      "Der": 8586,
      "Ġtue": 8587,
      "ĠMaus": 8588,
      "Ã¶ÃŁen": 8589,
      "olph": 8590,
      "ĠPan": 8591,
      "ĠPra": 8592,
      "Ġerweit": 8593,
      "ĠNation": 8594,
      "ĠRahmen": 8595,
      "apse": 8596,
      "ĠVersch": 8597,
      "aken": 8598,
      "oret": 8599,
      "Ġclick": 8600,
      "Ġnewsp": 8601,
      "aled": 8602,
      "Ġverbracht": 8603,
      "Ġwichtigste": 8604,
      "Ġinteressieren": 8605,
      "ĠmÃ¶glicherweise": 8606,
      "ĠWahrneh": 8607,
      "Ã¤chtnis": 8608,
      "Ġdeeply": 8609,
      "Ġslowly": 8610,
      "ĠgefÃ¤hrlich": 8611,
      "ĠVolk": 8612,
      "Ġsequence": 8613,
      "ĠErinnerung": 8614,
      "ĠKonflikt": 8615,
      "Ġinfluence": 8616,
      "Ġexhib": 8617,
      "ampagne": 8618,
      "ĠKohlenstoff": 8619,
      "80": 8620,
      "oben": 8621,
      "ua": 8622,
      "vere": 8623,
      "Ġtit": 8624,
      "leitet": 8625,
      "Ġcaught": 8626,
      "ĠLern": 8627,
      "idung": 8628,
      "ĠschlieÃŁen": 8629,
      "Ġmoves": 8630,
      "Ġexch": 8631,
      "inkel": 8632,
      "schaff": 8633,
      "Ġglam": 8634,
      "illionen": 8635,
      "Ġ32": 8636,
      "Ġgegenseit": 8637,
      "ĠnÃ¤chstes": 8638,
      "Ġlesson": 8639,
      "Ġcrash": 8640,
      "ĠKohle": 8641,
      "ĠMetap": 8642,
      "ĠSprachen": 8643,
      "Ġdegree": 8644,
      "ĠAktivitÃ¤t": 8645,
      "Ġbegeistert": 8646,
      "eper": 8647,
      "xim": 8648,
      "igm": 8649,
      "ĠMem": 8650,
      "Ã¶pf": 8651,
      "Ġreve": 8652,
      "illed": 8653,
      "Ġcompared": 8654,
      "Ġtraffic": 8655,
      "ĠManh": 8656,
      "riage": 8657,
      "ĠTeilchen": 8658,
      "ĠDeb": 8659,
      "ikanische": 8660,
      "Ġtypical": 8661,
      "Ġprotein": 8662,
      "Ġemotions": 8663,
      "ĠVerhaltens": 8664,
      "Ġconstantly": 8665,
      "ĠBauern": 8666,
      "Ġfinanzie": 8667,
      "Ġbegeg": 8668,
      "ĠKonsum": 8669,
      "Ġwheel": 8670,
      "ĠStanford": 8671,
      "Ġvorhanden": 8672,
      "best": 8673,
      "nissen": 8674,
      "Ġtour": 8675,
      "nden": 8676,
      "itiven": 8677,
      "itness": 8678,
      "Ġkit": 8679,
      "enty": 8680,
      "ĠMount": 8681,
      "Ġangew": 8682,
      "ĠFel": 8683,
      "thal": 8684,
      "ĠAns": 8685,
      "Ġletter": 8686,
      "Ġversuchten": 8687,
      "Ġgewisse": 8688,
      "Ġembra": 8689,
      "Ġbasiert": 8690,
      "Ġfrage": 8691,
      "Ġbesseren": 8692,
      "Ġcreation": 8693,
      "ippen": 8694,
      "ipped": 8695,
      "Ġtrained": 8696,
      "Ġargue": 8697,
      "Ġdeinen": 8698,
      "hÃ¤ltnis": 8699,
      "Ġpresident": 8700,
      "ĠMotor": 8701,
      "Ġfighting": 8702,
      "Ġgehabt": 8703,
      "Ġeingesetzt": 8704,
      "Ġverhindern": 8705,
      "ete": 8706,
      "set": 8707,
      "Ġwalls": 8708,
      "Ġsister": 8709,
      "ĠSing": 8710,
      "Ġcro": 8711,
      "ĠAug": 8712,
      "ĠBush": 8713,
      "Ġants": 8714,
      "scher": 8715,
      "Ġru": 8716,
      "ĠCode": 8717,
      "ĠOpen": 8718,
      "Ġproper": 8719,
      "Ġenth": 8720,
      "Ġclosed": 8721,
      "Ġbegins": 8722,
      "Ġgesund": 8723,
      "ĠMeilen": 8724,
      "Ġfactory": 8725,
      "Ġinsight": 8726,
      "Ġfinanz": 8727,
      "Ġfinished": 8728,
      "ĠFrem": 8729,
      "ĠDefin": 8730,
      "ĠBras": 8731,
      "ĠBrenn": 8732,
      "richtungen": 8733,
      "ĠForschungs": 8734,
      "ĠExperten": 8735,
      "Ġwunderbare": 8736,
      "Ġmajority": 8737,
      "ĠStandard": 8738,
      "Ġ1970": 8739,
      "ĠGeme": 8740,
      "ĠFilme": 8741,
      "Ġfascinating": 8742,
      "Nun": 8743,
      "Os": 8744,
      "loss": 8745,
      "Ġband": 8746,
      "Ġbone": 8747,
      "ita": 8748,
      "ĠAuÃŁen": 8749,
      "Ġzunehmen": 8750,
      "Ġweib": 8751,
      "Ġseat": 8752,
      "Ġreprodu": 8753,
      "ĠLied": 8754,
      "ĠHÃ¤user": 8755,
      "Ġalter": 8756,
      "Ġsac": 8757,
      "ategie": 8758,
      "Ġphones": 8759,
      "Ġstarb": 8760,
      "Ġemb": 8761,
      "ĠPhilos": 8762,
      "ĠerzÃ¤hle": 8763,
      "Ġcapable": 8764,
      "Ġacceler": 8765,
      "Ġgarden": 8766,
      "letzt": 8767,
      "Ġpaint": 8768,
      "Ġcollective": 8769,
      "Ġinteraction": 8770,
      "Ġindepend": 8771,
      "Ġsurprise": 8772,
      "Ġamerikanische": 8773,
      "jÃ¤hrige": 8774,
      "Ġopin": 8775,
      "Ġstrategy": 8776,
      "ĠFleisch": 8777,
      "Ġdescribed": 8778,
      "Ġstrength": 8779,
      "AR": 8780,
      "lÃ¤uf": 8781,
      "mÃ¶glichkeit": 8782,
      "Ġbieten": 8783,
      "orrow": 8784,
      "Ġfab": 8785,
      "teid": 8786,
      "Ġkap": 8787,
      "unken": 8788,
      "eline": 8789,
      "roph": 8790,
      "ĠBob": 8791,
      "ĠEhe": 8792,
      "Ġreward": 8793,
      "ĠHam": 8794,
      "ĠNan": 8795,
      "ĠNar": 8796,
      "Ġmanaged": 8797,
      "ĠOpt": 8798,
      "Ġdepression": 8799,
      "Ġstelle": 8800,
      "ĠSpekt": 8801,
      "Ġfaces": 8802,
      "Ġotherwise": 8803,
      "werten": 8804,
      "Ġtalks": 8805,
      "Ġparent": 8806,
      "Ġnormalen": 8807,
      "Ġattach": 8808,
      "gabe": 8809,
      "Ġ120": 8810,
      "Ġhohe": 8811,
      "Ġmathematics": 8812,
      "ĠKapit": 8813,
      "ĠElektr": 8814,
      "ĠSolar": 8815,
      "Ġbemerkt": 8816,
      "Ġnarrat": 8817,
      "Ġquantum": 8818,
      "ĠGewebe": 8819,
      "Ġbudget": 8820,
      "ĠÃĸffentlichkeit": 8821,
      "bahn": 8822,
      "gro": 8823,
      "ka": 8824,
      "offen": 8825,
      "pet": 8826,
      "ĠgÃ¤be": 8827,
      "ĠSind": 8828,
      "isher": 8829,
      "allel": 8830,
      "ĠKal": 8831,
      "oler": 8832,
      "ĠHal": 8833,
      "ĠOlymp": 8834,
      "Ġspl": 8835,
      "ĠStift": 8836,
      "apers": 8837,
      "udes": 8838,
      "ologists": 8839,
      "ĠSpan": 8840,
      "ordin": 8841,
      "ĠEntw": 8842,
      "pielt": 8843,
      "Ġbenutz": 8844,
      "ĠGenom": 8845,
      "Ġbright": 8846,
      "Ġirgendetwas": 8847,
      "Ġcoral": 8848,
      "ĠInteraktion": 8849,
      "Ġpaying": 8850,
      "Ġadvantage": 8851,
      "ĠFolge": 8852,
      "Ġoperating": 8853,
      "Ġunterschiedlich": 8854,
      "ĠMilitÃ¤r": 8855,
      "zubringen": 8856,
      "ĠElektron": 8857,
      "ength": 8858,
      "Ġpraktisch": 8859,
      "Ġdisappear": 8860,
      "Ġdauert": 8861,
      "ĠFÃ¼nf": 8862,
      "Se": 8863,
      "lÃ¤ss": 8864,
      "Ġton": 8865,
      "uries": 8866,
      "ĠDunk": 8867,
      "ĠHave": 8868,
      "ĠHÃ¤nden": 8869,
      "agiert": 8870,
      "ĠschÃ¶nen": 8871,
      "Ġmanage": 8872,
      "auern": 8873,
      "neiden": 8874,
      "ĠArch": 8875,
      "Ġentworfen": 8876,
      "ĠVerstand": 8877,
      "ĠVerletz": 8878,
      "Ġteuer": 8879,
      "Ġmuseum": 8880,
      "Ġroof": 8881,
      "Ġunterscheiden": 8882,
      "Ġdisplay": 8883,
      "ĠFlor": 8884,
      "Ġarbeiteten": 8885,
      "Ġorganisms": 8886,
      "Ã¤ngst": 8887,
      "Ġdetail": 8888,
      "Ġengineers": 8889,
      "Ġholen": 8890,
      "Ġperfectly": 8891,
      "Ġbenefit": 8892,
      "ributed": 8893,
      "maschine": 8894,
      "ĠAudience": 8895,
      "ĠRepubl": 8896,
      "cast": 8897,
      "har": 8898,
      "hte": 8899,
      "mutter": 8900,
      "pra": 8901,
      "ĠÃ¤lt": 8902,
      "Ġnannte": 8903,
      "ĠSyn": 8904,
      "Ġking": 8905,
      "Ġkennt": 8906,
      "Ã¤st": 8907,
      "icon": 8908,
      "iern": 8909,
      "ĠUg": 8910,
      "Ġreform": 8911,
      "Ġera": 8912,
      "uliert": 8913,
      "ĠCount": 8914,
      "Ġmoon": 8915,
      "Ġarch": 8916,
      "Ġjustice": 8917,
      "Ġwenigen": 8918,
      "fahrt": 8919,
      "Ġerster": 8920,
      "Ġschlimmer": 8921,
      "Ġequal": 8922,
      "Ġfollowed": 8923,
      "ĠFolgendes": 8924,
      "Ġhyper": 8925,
      "Ġcurrently": 8926,
      "Ġprinciples": 8927,
      "Ġverantwortlich": 8928,
      "gans": 8929,
      "keln": 8930,
      "mitt": 8931,
      "sinn": 8932,
      "well": 8933,
      "Ġhomes": 8934,
      "Ġhunderte": 8935,
      "Ġfinger": 8936,
      "isc": 8937,
      "Ġpurs": 8938,
      "ĠWettbewer": 8939,
      "Ġwhom": 8940,
      "aming": 8941,
      "ĠHaufen": 8942,
      "Ġimmun": 8943,
      "Ġschaute": 8944,
      "ĠThree": 8945,
      "ĠZimmer": 8946,
      "ĠStimmen": 8947,
      "ĠInnen": 8948,
      "Ġmyth": 8949,
      "Ġ26": 8950,
      "Ġherr": 8951,
      "Ġhasn": 8952,
      "ĠprÃ¤sent": 8953,
      "Ġcontr": 8954,
      "Ġeleph": 8955,
      "Ã¤dt": 8956,
      "ĠAutor": 8957,
      "Ġartific": 8958,
      "Ġinvisible": 8959,
      "ĠSchwester": 8960,
      "Ġexistieren": 8961,
      "Ġconsumption": 8962,
      "Ġvolunte": 8963,
      "Ġcivilization": 8964,
      "Ġkurze": 8965,
      "ĠLaufe": 8966,
      "Ġgalaxies": 8967,
      "Ġmentioned": 8968,
      "ĠGesprÃ¤ch": 8969,
      "Ġclimb": 8970,
      "ĠErkenntnis": 8971,
      "ĠTexas": 8972,
      "ĠManhatt": 8973,
      "ae": 8974,
      "blichkeit": 8975,
      "pos": 8976,
      "inkt": 8977,
      "Ġfiel": 8978,
      "Ġcateg": 8979,
      "Ġeiniger": 8980,
      "Ġwear": 8981,
      "Ġweather": 8982,
      "ĠEig": 8983,
      "Ġsoil": 8984,
      "iminal": 8985,
      "Ġstup": 8986,
      "Ġschien": 8987,
      "Ġspr": 8988,
      "ppe": 8989,
      "ĠIns": 8990,
      "ĠBeob": 8991,
      "ĠAlgorith": 8992,
      "aked": 8993,
      "Ġrow": 8994,
      "Ġempt": 8995,
      "prof": 8996,
      "Ġeffizient": 8997,
      "ĠGedanke": 8998,
      "Ġinvestig": 8999,
      "Ġlinken": 9000,
      "Ġsurprised": 9001,
      "Ġfeedback": 9002,
      "Ġmeistens": 9003,
      "ĠQuadrat": 9004,
      "Ġbeantworten": 9005,
      "Ġsetzt": 9006,
      "esign": 9007,
      "Ġbrief": 9008,
      "Ġearn": 9009,
      "alent": 9010,
      "ĠDad": 9011,
      "ĠBitte": 9012,
      "ĠGas": 9013,
      "geber": 9014,
      "schule": 9015,
      "Ġmeat": 9016,
      "Ġstation": 9017,
      "ĠRÃ¤tsel": 9018,
      "Ġgehalten": 9019,
      "Ġworried": 9020,
      "artigen": 9021,
      "Ġsomit": 9022,
      "ialog": 9023,
      "ologist": 9024,
      "Ġgrown": 9025,
      "ĠprÃ¤": 9026,
      "ipment": 9027,
      "Ġmusst": 9028,
      "Ġtreated": 9029,
      "ĠBeste": 9030,
      "ĠDiag": 9031,
      "Ġlimited": 9032,
      "Ġharder": 9033,
      "ĠAustralia": 9034,
      "known": 9035,
      "ĠSchimpansen": 9036,
      "cil": 9037,
      "iors": 9038,
      "macht": 9039,
      "Ġdritten": 9040,
      "Ġflie": 9041,
      "Ġincent": 9042,
      "ĠMund": 9043,
      "ĠMission": 9044,
      "ĠMÃ¼tter": 9045,
      "Ġwearing": 9046,
      "ĠEach": 9047,
      "hrough": 9048,
      "otic": 9049,
      "Ġregel": 9050,
      "ĠPM": 9051,
      "ĠLaw": 9052,
      "ĠaufhÃ¶ren": 9053,
      "Ġschm": 9054,
      "Ġlebte": 9055,
      "osion": 9056,
      "ĠStar": 9057,
      "Ġentstanden": 9058,
      "Ġnochmal": 9059,
      "meister": 9060,
      "prom": 9061,
      "Ġtraur": 9062,
      "ĠlieÃŁen": 9063,
      "ĠLandschaft": 9064,
      "utzer": 9065,
      "Ġmagn": 9066,
      "Ġbusinesses": 9067,
      "Ġleader": 9068,
      "Ġequivalent": 9069,
      "ĠToilet": 9070,
      "Ġwichtigen": 9071,
      "Ġhoffentlich": 9072,
      "Ġangesehen": 9073,
      "Ġgrandmother": 9074,
      "Ġempath": 9075,
      "Ġempower": 9076,
      "Ġcycle": 9077,
      "ĠMolekÃ¼le": 9078,
      "Ġvehicle": 9079,
      "Ġveget": 9080,
      "Ġentspricht": 9081,
      "NS": 9082,
      "afrika": 9083,
      "craft": 9084,
      "wide": 9085,
      "Ġdue": 9086,
      "alog": 9087,
      "ĠPerspektive": 9088,
      "Ġju": 9089,
      "weiten": 9090,
      "Ã¶nlichkeit": 9091,
      "Ġausgeb": 9092,
      "Ġdesire": 9093,
      "ĠDass": 9094,
      "ĠProject": 9095,
      "aks": 9096,
      "lieb": 9097,
      "Ġeveryday": 9098,
      "aufte": 9099,
      "Ġ195": 9100,
      "Ġbekamen": 9101,
      "Ġ2004": 9102,
      "immung": 9103,
      "Ġlebens": 9104,
      "Ġheads": 9105,
      "Ġlanguages": 9106,
      "fragen": 9107,
      "Ġbelong": 9108,
      "ĠKatastrop": 9109,
      "ĠRadio": 9110,
      "ĠKenya": 9111,
      "Ġreceived": 9112,
      "Ġkompliziert": 9113,
      "ĠTrotz": 9114,
      "Ġgalaxy": 9115,
      "ĠIndividuen": 9116,
      "ĠDeutsch": 9117,
      "If": 9118,
      "nel": 9119,
      "oons": 9120,
      "pel": 9121,
      "tte": 9122,
      "wagen": 9123,
      "erte": 9124,
      "Ġtag": 9125,
      "Ġfotograf": 9126,
      "Ġpal": 9127,
      "ĠAndere": 9128,
      "Ġstabil": 9129,
      "Ġerlebt": 9130,
      "ĠNobel": 9131,
      "ĠRat": 9132,
      "ĠRot": 9133,
      "ĠRock": 9134,
      "ischt": 9135,
      "throp": 9136,
      "aped": 9137,
      "place": 9138,
      "ĠSpiegel": 9139,
      "ĠNeben": 9140,
      "Ġsurge": 9141,
      "Ġklass": 9142,
      "Ġinteressanter": 9143,
      "ĠIhres": 9144,
      "Ġinvited": 9145,
      "Ġdrag": 9146,
      "Ġmagazine": 9147,
      "ĠMinute": 9148,
      "Ġallerdings": 9149,
      "ĠGegensatz": 9150,
      "heimer": 9151,
      "ĠEverybody": 9152,
      "ĠIrgend": 9153,
      "Ġarms": 9154,
      "Ġerkannte": 9155,
      "hÃ¤ngig": 9156,
      "Ġhorr": 9157,
      "Ġmultiple": 9158,
      "ĠEffekt": 9159,
      "ĠKÃ¶rpers": 9160,
      "ĠBruder": 9161,
[...]
